node {
  name: "keras_learning_phase"
  op: "Placeholder"
  attr {
    key: "dtype"
    value {
      type: DT_UINT8
    }
  }
  attr {
    key: "shape"
    value {
      shape {
      }
    }
  }
}
node {
  name: "lstm_input_1"
  op: "Placeholder"
  attr {
    key: "dtype"
    value {
      type: DT_FLOAT
    }
  }
  attr {
    key: "shape"
    value {
      shape {
      }
    }
  }
}
node {
  name: "random_uniform/shape"
  op: "Const"
  attr {
    key: "dtype"
    value {
      type: DT_INT32
    }
  }
  attr {
    key: "value"
    value {
      tensor {
        dtype: DT_INT32
        tensor_shape {
          dim {
            size: 2
          }
        }
        tensor_content: "\003\000\000\000\000\001\000\000"
      }
    }
  }
}
node {
  name: "random_uniform/min"
  op: "Const"
  attr {
    key: "dtype"
    value {
      type: DT_FLOAT
    }
  }
  attr {
    key: "value"
    value {
      tensor {
        dtype: DT_FLOAT
        tensor_shape {
        }
        float_val: -0.152203887701
      }
    }
  }
}
node {
  name: "random_uniform/max"
  op: "Const"
  attr {
    key: "dtype"
    value {
      type: DT_FLOAT
    }
  }
  attr {
    key: "value"
    value {
      tensor {
        dtype: DT_FLOAT
        tensor_shape {
        }
        float_val: 0.152203887701
      }
    }
  }
}
node {
  name: "random_uniform/RandomUniform"
  op: "RandomUniform"
  input: "random_uniform/shape"
  attr {
    key: "T"
    value {
      type: DT_INT32
    }
  }
  attr {
    key: "dtype"
    value {
      type: DT_FLOAT
    }
  }
  attr {
    key: "seed"
    value {
      i: 87654321
    }
  }
  attr {
    key: "seed2"
    value {
      i: 847391494
    }
  }
}
node {
  name: "random_uniform/sub"
  op: "Sub"
  input: "random_uniform/max"
  input: "random_uniform/min"
  attr {
    key: "T"
    value {
      type: DT_FLOAT
    }
  }
}
node {
  name: "random_uniform/mul"
  op: "Mul"
  input: "random_uniform/RandomUniform"
  input: "random_uniform/sub"
  attr {
    key: "T"
    value {
      type: DT_FLOAT
    }
  }
}
node {
  name: "random_uniform"
  op: "Add"
  input: "random_uniform/mul"
  input: "random_uniform/min"
  attr {
    key: "T"
    value {
      type: DT_FLOAT
    }
  }
}
node {
  name: "lstm_1_W"
  op: "Variable"
  attr {
    key: "container"
    value {
      s: ""
    }
  }
  attr {
    key: "dtype"
    value {
      type: DT_FLOAT
    }
  }
  attr {
    key: "shape"
    value {
      shape {
        dim {
          size: 3
        }
        dim {
          size: 256
        }
      }
    }
  }
  attr {
    key: "shared_name"
    value {
      s: ""
    }
  }
}
node {
  name: "lstm_1_W/Assign"
  op: "Assign"
  input: "lstm_1_W"
  input: "random_uniform"
  attr {
    key: "T"
    value {
      type: DT_FLOAT
    }
  }
  attr {
    key: "_class"
    value {
      list {
        s: "loc:@lstm_1_W"
      }
    }
  }
  attr {
    key: "use_locking"
    value {
      b: true
    }
  }
  attr {
    key: "validate_shape"
    value {
      b: true
    }
  }
}
node {
  name: "lstm_1_W/read"
  op: "Identity"
  input: "lstm_1_W"
  attr {
    key: "T"
    value {
      type: DT_FLOAT
    }
  }
  attr {
    key: "_class"
    value {
      list {
        s: "loc:@lstm_1_W"
      }
    }
  }
}
node {
  name: "lstm_1_U/initial_value"
  op: "Const"
  attr {
    key: "dtype"
    value {
      type: DT_FLOAT
    }
  }
  attr {
    key: "value"
    value {
      tensor {
        dtype: DT_FLOAT
        tensor_shape {
          dim {
            size: 64
          }
          dim {
            size: 256
          }
        }
        tensor_content: "\241\270\013\275]\220\311<?\302f=&\256\344;\352!9\275}?\024\274\334$1\274\306j\220\275\223\322\371\273(\225\337<g\321A=;\017\357=\2561\231;w\305\313\273V?\223<\330\334@\273\340\373\251<\271%\247\275_}\213=\233\340*\275=\273\005\276a\350\220=:\206\246=2\357 >\261\327\177\275U\340\007\276\311\304\351\274\355\316#=w\033\206\275lqF\275(\213\232\275\036\361\212;\335/\337= \306d:+\017\356\275\023\026\203\275h\337\203=I\035\247<\246\n\377=\253\021\323=\210\237\263\275R\324\332=\013\004\302\274\024\024\203<H\255g<\207-\004\275|\373\250\274\246q;\275D2\230=\n\242\270\275\254\032g=r\203\003\275\344\366\312\275\226\334n\274\004\320\241<\375p\221=DU\034<\300\312\220\275i\354\314=\363C\207\274\026;\241=\361\377Y;\260*\336\274\036lh\275g.\246;\200\302\202\274\026\276:=S\374<<1\357\264\274Q\201\017\274\337\005\037\275\002\257\332\274\010G;>}u_=\247_;\275\220\033\255=J{D\275)\377\267<\371\220O=\035\021A=\032\026\232;\262\263M\275\245,E\275w\272\022=\034u\032=kZ\t\276c\347\304\275\326\253\n>\216n\341\272[\025\000=\305\275>=\353\243t\275\270\222\341=\272\342\005<{\225{\275\316\206u<\256\325\264<\377\006\260=)\337\253\274\261+\016\274\207\026\214<I\030\302\274\366]]=\201\320\313=\353\350\257=W+1\276\t\303\363<+E\031\276!\316\274;\317 \331\275\326\2224=\215e\003\273\250\204P\276\017\273\002=]</\275 \373\n\276:\3066<z\267<<V)\302=\203(\347=su\247;\255\237\204=\314\274\231<y\017\034\273\243\303\377\275\267`\214=8\211Z=\312\263\250=Q\312\023\274:\334\037\275\002A\252\274\345\004\314\275\234\372D\276r\321\307=\361.U\275\010\267\300;\275\034U=\274\273\004\276\034\243\260=\252\317\017\275\347b\224\275<cg=\312\226I=^\017\257;\223\2553=\362\303\227\274\365/x=\363B\220=\316Z\003>\027\244\n<\037\377\r=\342J\235\275So\010\273\301Q\346\273\232\234\216<R\314d<\262\275/\274\035\200\214\275>b&>\350\002\352<\272\004\220\275C\214\237\275>\250p\275\227\361*<\251{\210<\310,y\274W\265\235<\326\201\362\274\315\266\253<#\242q\275\302.\233\275\356jH\274\026\002\332<\242<6\275\320\013S\274\265\277\312=\240[\224\275w\254==\221\321\375\275\350\251v\274\321\035\014\275|\037<=\303\t\301\274\014u\333<k\273:\275,\275]\275_*u\275lX\375<\302;\265=(\227X\275\301\302*\276\302B\005>\"c\347=m\205\334=\320kn\275\216;Y\274\225o\246<\032Z,\275\271H6\275\3144\001\274pz\030\275\325P\223\274}|;=\305\207\233=n+\237\275\240\341\326=k\250\360\2757\272@>\317Z\363=\035\030\242\275\3060\007\273A\237\337\275\220\250!=\254\223\242\275\341Z\306\274\304\215\030=\320\235\216\273o\003\263\274\026\332\r\274t/\376\274)\r%\274Z\321\274\274\32677\275\247\321\313\275\223cQ\275\025\222\026\275\375\203p\274A\345\362\272a\005\252<W\"\223=\177t\237=7\230\266\274\322y3=W\014\215=\004\\\003>\332H\346<\311\256\310=e\027S\275\217\377W=\014\003e=\25631<#\253\233\274\004<\004\276\301\207\254\274\006o\002\276\276w\260<\206\376\253=~\342{\275F,\023=\033\237]\275\'x)\275#\237\226=;S\014=&\273\231=\261\243\235<\353\264\202<\372?B=\224\360\222<\'\305\005>d\3439\274$\3608=\200\242\202\275N\177\013\274\372\"\237=Y3\326\275%\232\204\272\355] =\206+\275\275\362\005\377<\303\335\022\275_}\222\275\270\235\025>\203\365\003>\302\315\033\276i\361\246\273\247x\016\275\227\010\255=G\377\002\275K\306\203\274Z\361q\275\252S\n>\246\002\324<1;\271\274\271\307E==\362\215;3\203\n\274\344\227\303=C+\230\273\307\022\243=|\376M<\215\274\200\275\373\356\020\275\231\267E\275eZJ\275^\"\227<Q\314\344=\350f\037>\251\314\026=\272\031\322\272\373\277\247\275\300\035\237=[\313,=w\r\216<\022^\253\275 \327}\274\242s\221=\031?D=\325F1\275(\3721\274\242\017+<J\037\0209\355RW=\211~\213\275\333\371M<\235\020\331\274\177]\210\273\310(\267=V\256\233\275+S\273=,\264\313\274W\340\034\275,X\215\275\260#\031\275\330\200Z=\203\007\214;N\346q=}\327\215\275\320cs=S\210\220<8\261\030>\236b6\274\344\2124\273@,G=\307t\334\274\t\367\342<J\344\224<\374\n\314<\363\324\207\274\3659\332=0\007T=\377\217\'\275\nAc\2743\277\242\274g\323\212\273C\304\224=\201\350\361\274\203\253#\275$\350\334\275\265J\'\275\232\274\254\275\322\010\277\274\361\277!=\333u =\t4\227\2744\342I\275E\373\264=?f\014\275/S\021\274\006`\262\274\236\022\226:n\217v=\210s1=\326\225\224=A\033\274;\224eS\275\"\355\270=\026\004\324=^G\351=\026X\373\273J\203\000=\377\345/\275h\340\250\275\256%.=\203\361E=(\236\375\274\325\301\333=/\300\361\275\335\375\225\273\213u\247=Sv\252\275\n\241X\275\375\302:=d\362\262\274\352WW=\351C\216\274\325\310\221\275\311\261\205=5\365\203\275\307\333}\275\027<\215\275\2236\030\275\217*\035\2746\350\243\274j\022\363=\t\225\233=\241\025z\275\272\340(\276\355\212\253\275\237\316Y\275\\\262\320<\370\374D=\321\200\377<\272\372\316\275`Y\220<\005\212\344\275bC\005=\205\335\313<\036O\330=XWH\274\213\301\244=P-\301\274\266\320o=F2\375\274z\204p=m\025J\275@z\004\274\312\277W=?\\\270\275\235\036T=\n4\204\275\224\306\204\275\360\3552>\213\245\014=\306F\305<\017\257\300;\t\320\021\276\276FA<\330\335\036\275%\356\307\273\263\013r;\000Y4\276\322\355\027\275\237/T<\272M\201\275\271\177\"=0D\243\275\307\356\244\275r\016\213\2746\236\005<\020~\030\275\322\025\333=\010>8<\226\322-\272B\256\023\274\036*e\275I\332\247\274\241\366d\275\216\177\211=q\275\030\275q\346\331=\376\356\217=K\321\307\275\356\024^\275\275\265\251;!:/\276M\006\036\275\354|\227\275w\342\216=E!\242;~,m\275\2228?\275O\013\212=o\310\336\273`2\333\275\271\356\324\275\240\262\223={\355\022\275:\3376\275\001\261\016=k\237~<~z$=\2150\224=\017\002#\275/wd=\350\241\232;\035&9\275\3149_\275\205\220\315\274N\0346\276\246\316\260:-|1>$\243>\275\214O\010\275\274\343T\275|b\232\275\337\375\205\275\034\260r\275\030\315\023\271\255\367\000=:\316:\2767^\307\273\345o\214\274\rT\265\275o\311`=\300\227J>\374\322\026=?\246h=Hk\307;\270\225\254\275j\264\270\274\373\211!\276\377Ek=\316~A\275\355F\224<\000\245A=#\0162\275kZ\335\274\360\300%\276\354^>\2762\260\273=\317\221[;\2260,\275\315\3107\275\334\247\235<\372~\206\275\234=\036>\010\335\000\275\223\223-\276\362\361T\275\254nh\275N\323\212\2750>\333\275\353\347\245=\025C\233=\335W\214\274{}\212\275\314\306\246=\225\311\315=\360\261T<\010v\005\272\340\335M=\346Qo\274\366p\200=\207J\265<\2346\t\275\244\026\016\274\320M8\276\227\345\327=\243\252\236<\306\000v=\304\252\307=\224a\217=-\355!\275%\010\301<\022\0104\274]\242a\275\342\310,\275\333ao=\367\245<>\203\333\336\2749\340\200\275\251*\001\275\2057\321:\267@\330\274\326I\210\275\355\274R\275\224Y\022=\340\274?=`q0\275\347\371=\275\017\267\367:\222\022\036=\242\031#\275\367\256\205\274\375w\000=\024\024\311\275\332\250\220=4y\204\274[\243\223\274\314[~\275\303!\\<Ck\203\275\206\n\021\275)\323\017=\355Y\254\275SI\001\275\371\313\310\272\234I\001\273\352d\t\275\322u\031\275,\231\324\273!\373s\275\230\177\n\274\235\365I\275i\342\201=Z;\237=s\205y\275W\374\211=(\312\235=\334\353\201=\'\356\230;\223\272}<\354\2677\274%\367x\274\211t\235\273\000\223y=\334\343<\275~R\034\275\366\036t=\221N\022>\004\227\317=*e,=R\236\312\275\324L\256<%\216;=\301\242H\274w\307\'\273[\357\023\275\254\0200\275\345\002`\275\020\000\026\275\342P\000=\337\0349=\213\200\207=\362\007W\274z\211J\275\207+\177<TA\031;\224\243\036=swZ<8H\363\275]\221\260<\274\017\253<x:\315=:\261z\274\007\315N\275\261\014\230\275\227\223\333\275\265\006\324\273\251Y\205;\246\n\277=g\251a<\200\037\333<je-\275\225[\274=\004\370\232=\365\204==)\347#\275\001\216@\274\212\276\031\275\236\305\301\273\330\225,=\253b\242\275\376\333O\275\006cC=\254\236\005\275\324\347\002\276\027??;J\234\216\275\352|\226=q\311><~\027\274\275\"k\375\274\244 T=\014\326\n\276\310N\233\275\335\225B<\273\260\215=\207$\215=Y\t!\275\267\251T>\001\243[\276l\036 <\347\355\232\273\303\257\t>\0349\347\275v\201~=X\236!=\236\346\202\275HF\202=\323\210\370\274{e\224\275\331K\331<\214V\224\274\242J\216\275\220\236\253<\0069\277\273\262\235\344\275\200\031S=\353\020\233=*\374c=Z/\320=Y\204d\275V*\026=U6\225=\342!\\:\022\"\026\275u\204\217\274l=S\274_\231\310\275\265\365\312\275\311Z&</\222[<\252{\234\275P\201\200\275\270A\202\275\264\347M;\305\227\216<\305\346\016\276\261\221\030\275qSE\276|C\324\275Z\\\'>\304\223\330<&iI<G\036\203=ztY=\0145\025\275E\336@=\360\223\031<E\365\363\275\230B\276;\344\221\205\275\177\346\263\274\213\237`=1\016\034=#\233\005\275\306@\221<\230\322\374=>H\314\2753S\220=3m\001=\333\226\\\275j\224\322=\224\006s<\375KS\275\327\312\n=\031\356\223=M\366\274\275Dh\356\275\355\325\244\275\360\212 >\236\205`\275(\335\031\275nv\017\274\263iC\275\033\244\023=\227T\364<\275\331\335=\275uB\273\303\272\215:\356v\335<\360\023k\275\377=\315\275\002Q\206=pE\324\273\\\330B=\233\244\007\2765\327\314\274A\367\362\274\023M\265\275qEI=A\351:=\202\236v=\300\332\212=\'\210\334\275\232\021\">&\313\252=!!\002>\254\372\271<\266\030\207\275\244u\246<\372\203\001<\315\363\357\274?\370\203\274\221$\227\275>\304~\275\316\"\030\276\333\260\225:\203\207\213\274\025\013)\2754uE\275NY\227\275 \n\243\274\333\014\001\275\213\003~\275\263\214\333\275oV\r>y\240]<\255\302C\275\213[\362\274S\364\017=\374F\374=\353\177\261=\022\312\242=\001\267\217\275\354}\330\275\3026\370<\370H\305=\313\262\375\274\323\232?\275-H\002>\254#\235=\262\331\n\275\354\242\001>\343\177\255\275%@\207\275\235\335\033<d\210\364\275\234t\203<\347\304k\275k\017\000\275:\2135=Y\200\t>\036\312\205\274\003${=6\231==\341:\247=r\001\273\2736\333\240=\244\271\254=39\014\276,\355q<M!@\275\026\331\030\275\013\353f;C!\346<\242h\376\274\261\0020<W[\361\275\225\322\357=\334E\265=\224d\244<\234\265e<\000\021\311=\212\256\244\275\261\335\006>\271\352n<Wg\240\275u\255\375<\242@S=\235\001*;\215F\217=\275\367\010\272\3110\016\275}j\265\274;kQ\275\034\221X=\"VN>u\203e\274h\345[\275<E,\2754R\216=\322r\215\274|\364\331=j\351\033=\330\362O\274\222$6\275\356Y\240\273\031G\247\275\361\n1\275\246\205\022\276B\226f=@\033\201\274\244~\207=\r\0329<y\034\203=-\371p\275\225\375\006<\200\2169=N\326c=\035*\373;\001\342e\274(\216\032\275L;<\274\240B\005=l\014\n<M}\365\274\004y\007\275\2639\320<\202\010\306=\367\365\331\275\332\252\256=\004\305J=\003}\326\275Cc_<\250J_<\354}\354<\002\037\212\274=\205\355<\003:b\274\275\216\035>\363I\200=\337\017\334\274\271?\314=\205\371\256=\007\2525=f\265-<\271\245\243=\007<\004\275\376\335\250;\315C\327<\030o\350\275\025\263\035==y>=\226l;=C|\263=\3074.=\270\254\202\274\365f7=\034\224\004\275\265d\211\274\355\013\235\275p\221.\273s)\317;\272\207\357\273\251!\246\275\351\315\202\275\260\235!\275H\334\243\275\254\246\216;r\t\016\275J$\340<i\364\235<\226\007\316=A\\k=\254\320\033=\363\253\343<\352e\t=\325\256l\274\016\306n=\005Y\241\275\374\0241<\260\251\261\275\240o\241\275\250\004\335\275\253\032\200:\332\230\220\275\001\330\334;w9\361<m\\\232\275g\246\225=\340\333\300\275\310\331\223=\341p\261\273\213}\261\275uG\023\274\267/\253\275\326\374\201\275\266*.>,\374\302\274PZQ\274\277b\321=K*\277=6S\204=\241\241\356\274\021\323\t\2750\303\004\275\035\\C\274\343k\307\274L\316\222=\013\211\004=-^2=\332\360\360=4\366/\275D\"w=4/\254\275Pk\306<\020\315\324\275\325~\000\275\346f\016=\202A\330\275\347\305E\276\373cH=\302\t\227= #\232=\350&\023\276\313\314\201\275\027?m=,\325C=}\210\246=\014M\272<\235\000\222<\302n\303\274g\372t=\356\326\347\273\331-\022\276\302\362 \275\200\021\276\274\n\327\365;\022\004\331=^S\301=\376Jf\275F2\270\273\022\312\007=\2723->\352\374<=\3027\255=\337\360\204\275\233\366\220\274M@\030\272\002\243\343<u\203\241=\222\261\354;\317\317\231=\215\tR<\3509G=\240\210C\275\324\020\327<\3548\">\005\036T<b\302\207\275y\367\314\275\265\371?\274NV\027=A+V=\250\031 >\347\013\300=R\375\025=4\002\217\275S\216\246\275\272\303{<\313\224\003>WA\231;\031T\217\275>\006)\275\001\1775< _\244=\221Z\022\2754\027\304\274\317\302$>\310&\240\275\206\342\t\275\241%\010\276`<\200=\272\256\202=H\2753:\234cl:\026\331\241\275\034\235_\2753.6\274=\201\247\275BNq=\347\026\007>\311C\334\274\320r\256=\346\225\353\275w\304f\274\204\370\000<l\326\272<\3108\030=\343\265\324<\234\267~=\210&d\275\351~\211\2741\222\201==\177\252<\204n*=\226\0137<\372w\235=\374A1>&\231\252\274\201\313\025\274\331\363r\275\231\267\035>\260\240\\\275\372\321<=\215\206\222\274\214\361j<\352\347\221=\252\3777=\201\255f=\204\022\260\275\235j\364\275\272\251\232=\337\240}=\\\357Z<\334\366\252<\224y\337;\367t\000<k\310\227<S\206\222\275\036&\250\275(\t\214<[\225w=}L1=\323\357\n\273V0\026\275~D\275<7\255\302=\230$\220\275`\022\005\275U\031\204=-\265\010=\316\331\016\2751$\315=:f\217\273$I\242\275\356b\004=\200\361#\275\254\311[\273\215\031\206\275~h\254\274\344\371\362\274\330\037\010\276\340D\214=]\224\271=\027\344\260\274\021\220\264=VH\227;\333\304\203;|u\325=J\220\200=\344j\332\274\224\311\024\2742\247\016>b\267\201=\204\364,\275\210l\027>-z\264\274\255E\355=\256\323\r>\032\007\217\274\207x\313<C7\321\275\277i\'>%\246t=\264\253\271\275\0335\035\274\\\014\036<\014\3635\275\327u\017\275\313\237(>F,%=o r\275o\252a=/+\007=3f\220=\r\354\246\275h\375\\;\373M$\276\201\351\350<\023\242B\275g\010\271<\261\206j\275\256\026\200=\230\340\010=|cW=\005\016\311=\344\202\022=\260\205\010\276\177\226\205\274\"\217g=\022\343\215\275{\016\305\274T3\213\275\232p\362<\216]:<\tj,=\323\275\264<\203>%\275\252\020G=\024\307\245\275\236\242\234\275\357\270\277<\232\014Q\275)V\225\275\000\214\r\275Q\241\334=$\227\204=\266\306\017\274S\036\254\2757\025n=F\330\016\274\272\203\275\275\312\265\177<\3370\306=\303A\231\274\036(\333\275\020\231|\275Y\013\\<n\324\274\271\0025:;\370\033\344\275\tb\334\274\374\2561=\35033>bH\325=\272+Z;\006jm=\337P\335<\222y\355=\014Z\225<\364\364\223<r\203\313<rL\022\275\302\001\300\274x\0040<4Up\275\376)W\273\316`%\275F$x:\\\350\220\275v\010&=j:\272\275v\366B=!\330\341\275\372V\352\275L\032\245\275\266\274\266<\2751\322=7\342\267<Ya\013=\2130\241=\'\346\010\275\246\355\221\274\365<\002=\270tE\274\020l\033=\332\365Y\275\026\257\007>\025\001~=\22449<E\2510\2737z%<\307\211a=T\303g=Rx\333<\021\231\302=D5>\275/T\353<\315\322\212\275\223f\013=o\004\377\274+m\265=\356\372\237=z\350\235=\332Q\310;\t\335\005\275\350\002\260\275\367\013\000>P|0\275\321\023\225\274\245\007\321\275\256\253\244=\373e\346<\234!\n=\347o,=)wl\275\016\023P\275\274\024\210=\324\226A=H2b\275@S\267\275\026%\232<\330\330f>\353\342\334<\014L\204\275y\332\316=\201\320\017=\224=\214\275\032\3038\275\0045\013>\272\342\220<W#\321=v\213`\275:\341A=\220\202\211\275B4\215;\345\342\231\275A\307x;WQW=\233\231\311=\t\255\027\276\036\361\223\2756u\215\275\262\333\030\275\2376\223=\321^\003\275V\"c\274m\357\227\2754\3409\274+\334N\275\221\2504\276X\027\222\273\217\023\030>#\362g\275\n\034^\275$S\253=\330\023)\275\301u\305\274q\235+>\313\324\\=\013 \276<\000\023\032\273\261\327\332\274\307\347\331<Z\244\233=\004?\203\274@\321\255=h\207\234\275\223\\\307=>\3035=\255\3270=N?S\275j\031\211=i\004\271=\333@\236=\212\250\312\275\214%\263<\202*\273<\320\036M\273\037p\205\274\306\267\002\275\245wJ=8\326d\274\211\202h<\342\373\327\275f\340\232\275\271\361\016\275\244\373\302\274rE\240\275\330A\037\275t\350\321\275\265\355w\274\252\331\024\275c\256\000\271 \377\036\275%D&=2\322f\275C\225.<\354@\301<5\032\325<v\r\207;\210\307\223=\275\2722\275(]c\274\026\271\247=t\337>\275-\341\343\275sC+\274\240s\263=\022_\341\275Rq\317\274.\321[\275\'\325W=\037\n\026\275e\r5\275\016)\027;\305\243\277=\271\224\217=\203b\326\2733\370\345=aE\221\2754XB\275\036\324\332<\233+\177=\t\353\031\275\310\364\367=\324T\002\274-I\013=<\345\013<O\302\202\275\236nX\275\274\332\246\2756\003a<^\303]\274\313\370n\275\035[\275=\215\250\260=\017\013\206\2747\252P\275\345\1776\275\230\227\334<\010\003\233\274\"J9= \024\316\275?\353*\274\366\232\306\275\350\366\325\273\022\034\210\275C\006\032\275\364\307\006\276;\211\227\274\216\200\214\274\221>\005\274\274Y\013>\350\2429\275[\255[\274\201LO=\301%\006=\260\224\235\275\332\2442;\320\300\262\275$\006\345=\337\n\005\275\277C\030\274;\377\340\275S?F\276\005(\244=C<\017<v\376q8&;\027\275\273U\014\275\247]\324\275\224ih\275Zl\207\275\220\247\356\275\325!$\276B\321o\275\306\273:<uA\253<g\021\311=\331\243\003\275\211s\231=\023[\t=Y\032\246\275\232\200T=\365\260\261<vd\337\275\026\304\243\274\204\267\213=)D\360:`\240\237\274\226l}=\251\\A<bT\303\275$\235\r\276\010H;\275<|b\274^\006\003=\257Is<\242\357J\275\332\\\017<\227\236\245\275\246\237M\274X\334\017\273\022u\021=\326uF=\tW\216\275\221\002!<\234+H\275\2242&=P\376\t\275\233\345\216\275\226\016u=\232M\003=;\335I\272\205U\245\275\177\"\272<\350{\024<\261\031\234<\276\222\004\276clh<JLB\274\271\321\271\275^\006\233:\271\317%=\345c\205=,5\317\274\353\005w\273,G\251=~\265U\275\234\203\203\275o\317\215\275\336*\003>\207\246\033\275\375^Q=s\271C\275B\"B\275a\326\203\275\242;\310=\374\302\236<\355\350\225\275l\313\230\273\365\001$\275\233\355{;7\033\006\276\240&\204\275\325>\221=\035\264\274\273\310(\004>\021\274\324\275\332\376\030=P\006\241\275f\346\007\276b\315\356=\227\027\034>\344\010\223\275\326g%<\214\255\273<S\204Z=\260\301\007\2767b\257\275\032R\304=\374\240@=}\313\271=\370-\232\275\001\\\213=\230\320\'\276\001\347j;\177\177\260\274\343\342\242\275\"M\t\275p\037\317<\035\335\261<\372\330\216=\352\252\204=\234\177\t>$\010\257\274\003\014\024\275\025\360\003\276\263w\326=0d\303<\371\214\211\275\217\245\333=?\215@>\316\374\006>2\304\025<*\025\006\2767\016\005>d=\026=&\207\000=IR\312\274\031T\252<v\257\220<5\236\231<\336V\036=Z\370B\275\364n\016\275\221,\263<\317d\310=\267\245\025=\266\235\212;\357\265\263\274\n.&\276\316\032\304\275\'7\353\275~\272\347\275U#\201\275_:\275=\302\023\205\274c\203O\2730D\236\2743\304\022\275!Kj\275d\301\002>\375\255%\275\357\373\352=\346\203\336\275N\270b\274\263*\003\275\202\204\321\275\217Ci\275}\"\021=\312\263(=\343\341\037=\020\353\026\275\233.\302<\252]\331\275%\246\255=\234Y\302\274\001\035\227<2\342\201=\n\2704\275,\203R=4\313\356<\3727\315=\036\312\202\275\022\244\226\275\227Q\255\275:4\232=\217@\260\274\250\337\021>Qh\205:\364C\321\275?\344/\275#\244\030\276\260\340\216\275C\237\243\273J\236\301;\376\226\355\274\320A8\275\'\256\025=@\007\325\275\3462\254=\214\365\260\275\230\324\013=\\_\226=\t\362\030\275\217\026\266\2750\236S\275/\276d=*\345@\275\016\233$=ay\316=+\336q=!I\202\275\354L\223\275\002\n\345\274\013\247\214=\27453\275|\376\024\274\374\224\000\276\245\242\354=\321O.=\241q\263=\361\267\t\275\240\317)\275\252\253\322=\026\304=\274\226\273\336\274\23529=\304g\361\274c(h<\276\367z\275z\375\301=\315|\256=2\270\212<r.\\=R\314\243<|K\300<j\304@>\370\355d=p(\352\274\365<\314\274\037ra=\355\3761>Z\233f\275\323x\366\275d\360m\275\366\254\247\275\013\350\201<\275>G=\350\317\030\273L\267\354\275\366\252\022;\t\3479=\202\007\231\275\325u\341=Az \272\306i(\275IF?=\rQU=\001Y\327\275\350\346n=IM\202<U\224\251\2753\324\311=a\273f\275F\207\241=\247~\302\275\364\317\030=SD\351\274\242\004\336;\305\265#\275\236\2002\275uB\360<\177U*=\201\177\000\275s|\303\275\335\'\177\273\235\376\025<\314G\207=\360\2134=\356X\r\276g\212\210=t\367\'>\224\363\207\275._\247\275)\001\377=\2708\264<\031p\243\275\371\374\346<\2764\246\275\326>\375\273\302\033\240\274i\372C\275I5|=J\236\341\274\007\315#=\032\255J=\250K~\275\374y\365<\227\317\225\275\367\214\260=\321\236\277=qz-=\350\177\223=^mI=\r\027\365\274\332h|\274\364\\\307;ur\014>\202\245\022=\030VM\275\303\327\304\275r\375?7\360\327)\276\205(\207<\263O\322\273\201*\332=\330Z\223\275T\207O<$\372\247\275\273@)=\337\274\227<\311?,<,\304\212=\033g\206\275n?y<\3007\242\275\375\272\n\275x\325\223:\353\2153;N(P<\205t\313;\001\025A\274y\364?\275\274h\220\275\231P\334;4,\257=\320\342T=\377r\352<Cw&=U;\006=U+\021\275k(\207\274m\263\n\276K\344g\275c\r\255=\025\256l=\2368\001\276\234\271 \275\315\036V=W\027\302=\326\300\237;\222\263\251\274\357\026\005=R\307\245<\367Ve=\266\252\003\276\236\254\255<7\363!>\350o,<\031\332\">F\326-=\231!\203\275er\241=\371}\224\274#\251==\264?2\275/\325\355=\370\021\005>\366\214\025= C\013=\'\241\254\274+e\177<\316\226\257=\\\277R\275l\267\206=\377G\201<\377l\245;\014\372\246=\237K\235=f\246\274\274\340<\233\275\317\240\261=+U\231\275\253\213\374:SUx\275Y\304\302\275\234\004\305\275L>m\274\324\245 \275t\026T=\201\352\026\274m\227\374<\333rC=\242#\303\275\2527\333<\256\241\006>\221\017&\276\341t5\275\2432\'=\323W\354<\"`\201\275\022\240\006\275\265\341`=\3071]\275\025L<\275$\017=\275\303\2025=\3722\354=p\241\243\272\377\336o<\305\272\001\276\272fr=\304\245\t\274\247\247p=|\376:\274\351\005\227\275\246\021\371\273\\\372Z\275*\005\257=\001~\322=\257\342\t>:g\373\273L\241\037<Lv\234\275\016\352%\2759\034p\274\250\250F\274\006\263\211=\235\216L\273\251\323,;\321\020\033\274\016u\025>6t\016=\021L\264\2751\271\235=\272\265\223=/\304\367\273\352\365~\275B\3160\276.p_\274\264V\354;\273\300\006\276~\271\324=W\350\315=\213\263\234=+\246\355\274\254d\006>\257\010\023\275m\361\020\276\335\375\204=\363}s\275v\347\220:y\223\363<R\010\201\275\025\341\311\274\014D\320<\343\356\224\275\265\277g\275\274\271n<\235\364\240=\255\227\352\273s\020m\275\204`Y\275\307\323\243=\253\022H=\032\312\355\273r\2000\275d\370+\274\035e^\274\355J3\275\322\335\246\275\216\373\010>L\367\233=;\300\034\275hx\213\275\273\235\275\275+|w<\236\356\225=u\247\n=\342\356\371\274\324\314K=\225ig=U\313\003=\246\014\240<\274\321\322<\357<,\275\037-;=\235\354]<I\263\245\275U\303\320\274fnn<;\263o=\227g \274%7a=i\031\030\274\265\232 =\312.\313\274\270[\346=\353\031\\\274\374\033\300\275\321\245\205\274\257\000\221=\221\265\325\274,o\327=\034\346\\=n\356\251\275*\343\275\275\260C.\274-\247\305=\350\253\004\276*\224\303<m\354J\274L\315\364<`\324\037\274\270\316\343\275\313\366\356\274\3676\210=NLF<B*\375<#\007\232=\017\007p=\261M\240=\tdR\275Q\013{\274\"\r\003\276\244d\255\275\021T\021\273\345\034J\275\025\377\304\275\002{W=v\216<\273\304\271l=\224\355d\2755\376v=\201\222\032\276\207\276#\276\003\002\345<\nSX=_\\\316;6\250\020=\236\362\302\2759\371\305=\005\245U\275\316\244\252\274FNe\275\030\222\026=1U\265=\364\335\n<\207\243-\275^\032o\275n\021s=~\363\245\274\324M\276:Hl\007=\300\nu=\3115V:\251S\264=~j\204=>L\014>,\214\001\276\2025I=5DJ=\014\330\347=\253\222\003\2742\030\375\2752;\367\275\201\235\327=TfP=Z\315,\276\316\351\"=\004F\320\275\340\034\356\273P-B\275\177\350\306\275\004\221\240=+\251s\275\\\252\240\275\216\203\235\275V\351\216\275\333\226\335\275\374X\020=\006\361\014>\337g\341<^m\022>\304\376\216<]g\'\275\317 \344=\310\207\220\275\315D\210=0{8=(\371j=\004\032V\275\363\334\334=\253%\032=\rM\027\275H\234\366=(IX\275\312.\207\275\267\312&;\364\t\017=\024Y\014\276\333\205i\275\002\213\221<\316X?\275\374\322\243\275\323\247\204\274U\214\356\274\217\375r<]\255\327\273\033A-\275f\344\232\275\020\377\"\275\266\256\203\275\330\'\263<PF\321=\033\3428\276s\361D\275\317\214\245\275\341\357%=\2216O\275I\202\202=8\244\n\276\031\264\241=\037\275\001\275\035m\003<\346\377\343\275\343?\346<\201\202\205=\262\005V=\373\033\230\274\177\243L\275&\365\006\276o{y\275WvY\2757 \"\275\222\277\256<q\014\310\274\036\205\263\274pI~<W#\365<o\362&=\214H\305<k\007m\274\314\205\317<j\210\252\274\244\337\230<\361\323\024=\034\215\177=BvN=\353\260\253\275u\214\203=\316;{<\335\345\370<\265Q\277=N\242\202\275\236\210\032\275QZ\327=\014#\306=`-P;\200x\345\2744I\236\275N\246\n>\013\333\344<\277:\302<[.\257=\277\332\232=\277{\205\271\250\215\354<80\034=\030\316y=cg\"\274Cx\204=0\310\255=\303\265\213<\025}9=\341\030\260\275\246r\024\274\306\222\201=\371\242\340\270d&\262\275\246f,<\361Y\270\275\215\177m=\210\345L\275\177T\326\275F\376H\275\330l\030\274\300\325{\274\341\340\231\275\314\211n=\371\004\013\275\257\2504=\270\377\265=\367\217\274= \223\261=\344\233\277=\334~b\274\367,&=\216\362\320=\3415\003\276G\274\363=\030\303\220\275\r\277\023\276\331\257+=f\212\024=\376\352\316=\253zK\275\021\027c\275\225\230l<\336\361\027>1\t\224\273\204+\222\275\246\334\226=\032\257\210\273\301\251w\274\213;|\274gi\317=\222\031\255\275\352\337\201=\311\327\010=\201\r\213;h\014\231<\236|\371\274/~\265<\r\365\216\275K,\n=x\023\224\275 \032\252\271zs\222\275O\333\241=\371\206A\275\233c\266=\031\230\313\275\352\334.\274\273\363\207\275\360\344]=\312\343i<Kh\255<\343\254P\275 G-\274\303;\237=\013A\014\276\375\276\350\275(D2\275[R\336;k\005Y\275a\246\361\274=z\006\276\313\000\177=\010O\231\274\230\256\305\273\036a\017>1T\216\275`A\010>e,2=qi\320<\307\032\320\274~\026\335\275MhN\273\004\321\016<0\257\">\340\367\002\276gt\255=\333d\021\276\273\350\316\274\006~\362\275\007\360\212=\243\331\255=\216B\214=\027c\253=\177\224\237=q\006\027\275\324`\364<\327\270\204\275\032\251\222=\272[\036\275\305\373\\\274\246\313\240\275u!y\275&~\311=\0160\207\275\276\202\312\275d\312\320\275\204\\\215=\243\354\307=Y\233\216=\352\0243=[\262\267<\347bT=\327\363M=\231\360\261=\205\r\301\272\020\370\264\274\326\321\273\275\243\227\221=\025\361\225\274\340\375\021>\244\307\271\275\377\360\332;nD\321\274\224\207f=0\352\303\275\264\223+\274\277\211\203<\2307\026\275\366\347\275\275\026\336\177<O0\345\275M2%<\364\345\235;H\030_<\361\363\265=\231\370\350=\306s(=s*\246\275,C\343\275>\\\275=L\007\002\275\242M\332\274\022\254\370\274\232J\221\274y\034\253\275B\315\037\273\376\272\001\274c\272\355\274~\243\013=8*\202\275\010\306\307=4\306g=\325T\002\276\230J\313\275\362\253\272\272\024\236\227\275o\303\371<Nha<gJD\275\264\3548\275j1\302\275\270\341{\275\332\217==\240\370\223\274\356\031\234\275\275.)\274@\024\225<\234\255\332=\333\343\227=\330\337 >\251|\267<B9\352\273I\375i<X\333\270\273\031\361\223;L\034\205\275\313\027i\274\233\251U=)\276L\273m\"%\276\274\332\233=\222U\230;\220\333\305=dz4\275\237\302\311=$\235\031=?\271\250=\317z\t=ld\311=\241\340\200;\317\265\313\2738\3329\275\307%\r=\234\327g<\222\321\242<\036\333\251<\313\315\345=\210\216g\275\212\211~=\321=\013=G\377\257=\017\037\227<\301\366\353\274\001\314R\2757L;<\241H\002>]\027\212\275;y \274c\235\207\275\370\210\301\275t=4\275\257\035\330\274bM\r\276\216\226w<\'\200b=\017\237Y\275/g\335\275\342Lh\275uw\273\275M\301\231=6\374I<\352^F=\177(,\275\320\244!=\316X\207<<T\304\275\240#\330=\232k5=\360\033\004\275\241&\346<\270\337-\274l \020=\347\026\005\274\251x\337=\336\251\353=\225\324\030\274Yu1=\036\240\274\275\224g\211\275\254\253\273\274\004\327\232<\332\242|\275\245(\255\275;<\210\275\t\271.\275\240m\355\274\036\366\232<\270\275@<=\032\235=\022]\302\273\256\023\026>\244\247;=\200\354K\275\312H/=\'\320\207\274\031\036\240=\335\007\t\273\372M\232=k!G=:\254\027=^\211\2669\2723\215\275F\341\025>f\273\t\274\377\207\233=J\326\340\275d\360Y=\377\242v=N\036\376<\255\361\001\276]re=:\311a=X\334\000=o\302\234\274\177\372\033\275V\267\023\275\222E\240<\251\031\275\275m\256#>$\277\177\274\210XL=\377\361~=\323\214\245\275\264\374\256=2\'\307<k\367\025>\233\244\240=@\003\364=r\304}=\013\216\033\275\371@\260=\221\242\330\275;Q\340<\217\003\n\272>\245\014\276\024|\256;\316\243O\275o\361\212=\013<\336\275\341\263\377\274\021{\n\276L\r\027>i\267?\273\247\232\227\274i\255\225:\310\202W\274\347\216\271\274\177 \262\275y\206\256\273+<\376\275<\307\373\273\346}\243\275l\342\324<\230\n\240\2750R\263\274~\325\230\274\265\032\211\275\000Lt\275i\261\216:>\243\t\275\346\365\326\272\275\252j=\243\202*=bw\332\274\003\023\345=%\267\304\275\336\264B=\315\340\240\275\255Oo\274\230l\002\275\335|\200=\311\344\177=\006i\007\276o|\330=\336Vr=w\243\003>\021e\210\273\353\317\210\273\367;H\274\237\327g\274\024i?;?\177\321:\236{\302\275\2004\274<\336\307n\273{,\262\275k\262\005=\321\374\261\275 v\210<\3742\327=\377_\202={k\204\275\200\375\206\275f\332\017=\010\031\340\274\201\351\245\275\032|\251\275D\324\373<5\2262;\3706\253\272\276z\251\275R\325\231=v\212\317=-\317x=\370\206\253\274\336\217\327\275=\364G=\"-\000>\0100\361\275\036\334:\275\020\271\341\275\37347=\371\337\376;\033ha=\234\255\037=\377\226\302=E}\030\274H\220\372=\307\266\305=\217\322\245\275\341\375\260\274\344\024s\275W\243\207=\326qL\275H\220c\271\237\245c=\010\214\213<\267!\t\274\263\236\366<\225\352\366\273U\3270\275%\304\026>\321\'\240\274\324_\t\275\356p\251=uA\257\275\003/\016>b\216\252=u($=\006\205|\273\367]\244\275\3055w\275+\365\227=\231\304\307\275-\001U<\373NZ\275=(\273\275\332?\201\274\"\002\234\275\257!\230\274\311\323\r=\317\243w<\003\033\336\274\227\304\330=\037\251\300\272\004\206\001\2752\315\003\275\3478\247=\252\333\234=\243+\245\275\005\247I<z\350\220\274V\250.\2755\313\212=\201<-\275Fca\275\361\032{\274\372;\213\275U\316\361=o\300\337<\333\265f<a*\037>C\371j\275\235\356\200=H)\037>\232\365i\275\n\221\367\273/J]<\324\364\205<\300\016\017;g\324^\274]f\361\274Sr\213\275M\344Q\274\034u\372<\210p\265\275\234\202O;3\004\211\274-\326\261<\220&B=\001\0144\275\304\355\016=\026\340\257\275\004\246y<\024\rz=\000\375\374\275wy\233=}\341\346\273\014\224\363\275\377\277\025>\216+\016\274\370ST\275\262\366\002\275\231@\360\273\223\034\013\274|\343\213\2759I.\276\363\214\036=\256\344Y=\367\246\317\274\361l\215\274^\350(=\226O\004=V\231\306\274`\371\241=D\330^=\253Y!\275\337Se=\226{#=\354\"C=\030\007[\274\331@\272\275\307\257\340=I\206\023=\377\213\001\276(\262\232=r\030\373\274*\033\376==\341\211\274\266\264&>h\234\213<\273mR\275\366p\030\276}\306S<Q\270\252\275\232\212\311=\017\3606\274\253\270\315\274\363)9=\204\302H<\361\'\311<\331v\350=\034y\240=\256\230p\274\200\313\252\275L\237\312\275\307A\010<\210{\202=Px\332<K\211\r=\"b\021>D\257\234=\234->=b\t\032=\222\n#\276\215+\265\275aX\204=\211\007\225=\033\020\222;P\274\t:{g\232<\033\007\\\274z\002^\275\332\212\200\275\021\323\307=\211Nm<a\347\250=\301\205\243\274\020R\240=\006\2574\275\343\021\306=T\r\320\273\252\350\206=\203\'\345\272\026\204\322;\244\216\330\275\ti\237<\025\361\211\275\367\303y\275\014Wd=\276\002\243\274\273\263w\275\037\313)<\234\243\322\275T\231\007;\254\205*\275/\266\313<S\350\215\275r%,\275K5\320;\003c\225\275\252\257\367=\030\376\023\276\321\203\344<\306C\357=\021\216\232;))\302\275\245\211\303<\204\261\236=\006\262\202=R\025\211<h\025\266;\232\244\031=s\207><\232\n\327=X\236H\275\326\263\227\273\253%i=\373\027-=\201\000\363\275\237n\264<\216\221\327\274\363-\251\275\234\025_\275\341\r\314\275\022^\026<\256\341R=\247\2535\274\025\201\223\275\271#P;n\007\036=@S\232=4\360\025=2z<=\234\020\325<P\347\240\274z<\245=\341\346\220=\177X{\275\202\372\306=\354\220`=\004\301\013\276\375\003\200\273H#\000>\301\003$=\005\'\321\272\340VO<\212j\301=\024~\250\275.\033l;\336\324\245=Z\304\272;p\354\223=\017t\214\275G\2124>iG\265\275h\377\205\275\213)X\272\252\330\007=\000m\320\273\231\3468=\334\023\246=B\306~\275iM\036\275gw\005\275\0276\177\274[\275\237=qU\037\274Vr\242\274\244\250\276\275l\354\351=\36350<\250i\020=f\332O=\267\307\212=\205t`<\244\r\217=\032\306\236\274\233\\\032\276\021R\013\274\364\221\203\275r\004b\275\317\344\261<\317\031\216=c\t)=\322^\312\274\346\216\310=e\233#>\030+/\273\230;8=fL\315\274\306/\310=4\304\n=\254\000\005\276\263L\207<H\236\032\276\r\304c=\2141\036\275\253!\022\276\371\260\000>\266L\240=\210\311\240=\010K\307\274R#\036\2740\235\024>$uW={M\351\274D\261\311:\013\2043=A\363N\275\210\212\363\275\254^\277\273\321\231\251<\340av=\\\200\251\275\340\321\307\275\000]:<9\313\372\274\356+-=\265I%\273\310y@\275\376\342\240=\010\244=\275e\032_=\206O\254\275lr\347\274.\327\r>\215\343\365<\036\376\300\274\341W\255\275\025HP\275\313\001\230\275\352\300Q\275\350\t~\274 \277\003\276g\313U\275y\335\263=&\242\245\272\346g\232=t\001I\275\"\302\036>@\302I=S\322\261<\272\025\241=9}\230\275\306M\226<\371\365\367\275q\270\211=\237o\277=FLN\275v\335e=\320\300M\273R4\332<Q\n\344\275a\234\013\275\316\374\342=\350\207\244\275S\377\246\275\375s\037<\207\257\330=\275\315\3039Z\344k;\304\242\230\275\353\241\016>|}L\275\220\340R\274Y]\255\274q\361\372\274\026\267\016\276\226VK\275m\335\027<\013<\026=\2708l=\317\313\233<~\030\'=\335\2624\275\276\020\005\275U\032\016=\355T\347:\324/m<\270\036\265=\214\257\363=^@\032\274\230\213\254<3\356P<\017\235\373=T \253\275\342^\210\275\335b\255\275V3\360<\014\221\207=A\266\273\275Q\0014=+\301\304:\331\035\032\275\335I&\274\240He\275\373\340i\275s\234\334=O\231\030>\r\344\361\275\220l\254\2755*\026;n\367\306\2742\324T\275\217<\370\274-\365\365\275\032\364\253<y6\266\275O<\000=\3700\354\274\242Rg<\243\331\211\274\224W\203\275\232@\t\275Q\242\201\275k\265!\274\016\036\351\275\300\350\363\275O}\346=H\312U\275\315\245\333<\340\020f\275\254YQ\275\036\013\226\2758d\204\275k\374\361\275\312\245\034\274R\001\362\2741\215\242=\236-\"\275.\251\251\273i\350\034\274@\332\"\276\326\354\272\275\257\213\204=\357\300\035=\245\371\025\274\nv\276<\363\337\230\273\273\302\245<\000\2100=\334\264\355=\006\350\035\274X\337\363\274$\275,=\316G\022;\212\347K\275\035\353Y=\302\371\274\275!\300r=C3\243=\350\202-=\346\235P=h\366\302\275kn\200=@Cw\275t7\211\275-\031n=\'OO\274\307R\037>\373\322_=\277\346|\275\322u\234\275\201@\353\275\303\'\266\275\272\000\321\275\031 \016\275.\014\016=6\253~=\260\2130=\272\276\335;<\235\317\275J\331\352\274\371\220E\272\251\246g;79\222<+l\225\275\355\365?\275\315{a\275\220\312g\275\206E\001>u\213\367=\254\373\364\274\306G\225=\235\2316=)Uq<b\260\233=f2\300<\337#\344\274M\204\254\274\025\213\001\275\361\203\232=\377\306\376\274\216\354\221=\321\021\344\274*\224?<\nH\305<\t\005>=)I,\275A\356\345<\273\221y\274\307\031*\276\207IO<\210G\223\274\272\223\205\275\307\336O\275y\345\245\275K\010\033=I\321\345<@Ya=\211\026I=\312\262\310=x\330-\275\235\220t=\251zV\274\323\355\344=\276t+\276K\226L>\347Ti\275\357\211\206=y{\215;\020\030\311\274\000\242b=*E\256=\204\030\262\274%\212\255=\332\252\255\275\334\361\'\2750\004\270<\332}\350\273\366\031\215=\354\311\241\275=\027\262\274\231\256\314\274\361\360\017\275Ow\315\2741w\210<\210\203\001\275\363_\202\275\006\210\360<&\023\327=m]\264\275\024\3474=c\310\3657J\365V<O\001\r\274&\342\264<\325\2000<\204\202\022\2764\250H=\2619F=<\350\236=\213\272\347=\023\253a;*\365L\275wF\254\274=\245\235\275N\311\246<\210\262\240;\016P\031=\365@\n\2750\245\206=\364\323\372=T\237\001\276\027\242\345<\034\214~\275q\022\026\275\375\247\235\275\202\265\356:\020y\243\2749m\013=\273\347\310=\010\312\372;\366\366\302\275\364v\001=\270\235\016=\221\263\200\275\001\004\267\274N\311Z\275<\365\201=.\036\245\274.$\223=\370s\354\275\310\\\035=\351c\233<\225\340+\276\225\276V=\251p\373=wZh\275k~\214\273\313\227\276<\247\321\263\275\0168\270\275.\010\373<\237F\026\275\'Y\330\273\262\361\214=s/s=\241\021)\274\342M\021\275D\242\210\275\247=M\275\2025\035\275\321\341\245\274\275\253\226\275\243H\r;\020\304\256\275\324Bg=\233s\332\275\365S\032\275U\376,>\313\271E\274\006\276\010\275L\273\342=\316\n\021=`\343\325=\370\364\336\274F\000\002>\263\'\206=r\032\320=\340\257\204\274cM\020\275\320\302\215\275\370\327\203\275\004\221w=J.,\275ga\031=\362~B\276\351\261f\275\253\241Q=\270\034\027>\224I\231=\032\306\312\274\224\250o\275\357\226\214\275\354\332\224=\030\370\271<\202F\014\276*\333\273\274\257g\206\272\\\255\016\275\364{L\274\256\213!\275k|\006\276\002\255\205=\345d:=N\274\371=|R\325\274\315\311{<_\352>==\023\217\275f\017\267\275O\322\026<x\355\312=R\220\211=-\205\233=j\266f=8h\343\275\000|\017\275\342|\330=\223\307\234=M~\307<\220\333\243\275\335\253@\274+\005\313\275y\303\240\275\035\370,<m{\224\275\203>\202\274\023?\310=\264Y\204=X\207\256=\211&h\275:rK=\\\273\357\275\323F>\275\342\271:\275\347&\360=\203PC\275\035H\342;TR\307=\2771\202=L\226\016\276\360\253\305<D\243k<sJd=\260^\350<\270\340\210\274\361\250\207;\r\322\305=\200\212/\275%z\202=q-\030>%\250G\274!]\002\274/\\N=\250<-=XL3\274\240\024v\275l\220C<\355\007\002=~\354\260\273\311`\255<\3645t\275)\253\211\275\327\363u\273\345@p=J\266\202\275\342\005\346<\036Xl\274!T\341<\000\372\264<\177Z\025\274\304\356\256=e\305\024\276l\267E==?\377<q\204\002>\274\2711\274\333\314\267=G\347\316\275\300i\345<q\366*=6\201\"<\333\001\361<p\027\376\275l\266\354<TN\243\275A\3327=\246\231\303\275.;\262=\000\231v=^7\024=\316-v\275\002%\305\274\203\213\303=1\326\031=\\\030[\2740\233;\274\355,%\274J\351\226=\213\333Q=\330\252.\275\356LK\276\324\305F<nH6<\316\031\010=\225\230\321\274\200q\331=\351\355&\275RdB=\"\355\213\274;\202\334=\363\251\376<\334\354\030\275\257\364-=,\325\027\273\225\277h\275\217t\333=OlX\275\"D\334=s\027\236=\2173\360;}\'\360\275\365-\230=\256\002\316;\230\247Y\273\377q\227\275f\324\205\275Q\255\200=\305q\"=\016\326\222\274\2173\014=\362\301\005>+(\035\275\313\024\206<\360\275,\276Wm\313\274\263S|=\014\363\362;\310\326a=\036\n \275\177N\212\275m\010\026\275\252\321\267\274\366\327u=\001\024\256\272z\375\205;MV\253\274>\355\231<?\\\r\275q;\201<\247\217\234<\207!\262\273h\260\256=:\321\022>\033\2407;\377\307s\275S\204B\276\226\305:\275\274\313,\275\240\005\331\273\217\226&\275(\014\256=\307>+\275\017+q\275Q7:\275\030l\001\275q\226\320<\375b\257<\005\205\000\276\310\203\351=\355_\247=\226c]\273\235r\336<\210\327\222=-4\252=\276V\022=<1\352\273 I\225=\371\327\017=\320A\261<\327\243\264\275\370\262\206\275Gx\236=\372G\223\274\333\317\236\274~\234\346\274\314R\320<|\325\031\276\234/`\275*N\"=\263\344Q=5\260m\275Y\377\202=>\210\211\275\312\225#\275\342 \277=\216\312\235\275\323\\\202=\013\216\236<\2637\267=\232B\330:\342\016\211\275\006-u=\025H\033<!{\277\274\211%\264<\266\014\017=\377\016\244\275\336I5\274\225\375\277\275\r\216\014\276\345\031\201\275\241\036\350=\023H=;p\305s<`\020\003\275}\016\252=\271\341l\274\363,c\275\310V\320\274\343\374\221\275\331\373\335=\221\241\235\275\225\345\370=5?\032>\250\006\363=\256Z\014\276&\375\251\275\351\3263=\3709\363\275\345`\022\274\233;?\273\315\377\014=S\247M\275\331\030\270\275\232#\021\274\021\001`=\014sH=Ka/\275\3203\323\275\351\033\253=#S\373\275\302\036\023=\263\257]:\010\256\273\275\217$]=w\240\353=2e\260=\300\254\261=n.\251=\227\300\230=/\035\215=\270}\304\2754p\237\275\342\305\234\274\246\245\033=\303\334\177\275jR\237\275D\177\272\275o\251G=A\261A=J\237\247=\373\033\344<\205\003G=%\024\246=\003\031a=\347p\227\275O\347q=\266g\357\275\263\267\034=\004\221f=\307\330\021\274\3356j\274\262\235\230=#\305\361\275k-z=\257\014I\276;\342,\275d\003\315\274\275\016u\273\365\377f\275\242\200/=-\335\017=\237w\265=j\307\332\274^;~=\236\n\201=\332lM=\373\"\232=W\340\302= \225\001>\013\0074\275h\275\206\274\021R\314<\327\324+=\344\334m=\207\324$\275Q\261\350\274\270\033\300=|8\210\275\013:<\275,vV=rM\311\274\205H\354=\237_\300\275Z\014*\275\362N\253\275\365,\267\275\246\000\023>\266\336\371<[>\330<I\016\023\273\231\323~\275e\260;\274m\221N\275\020\262^=\030\314\273<\323<^=\343\327+\275z\213\234\275H\3107>\250h\004\272\336\254\007\275R\320\352\275*\375~\275F\r\252=\342\227\001=!)\204\275\t\317\205::\366\225\274\277\016S=\024\004\222=\355\340B\2746\016W=l\246\234\275\233\327\006\275C\265h\274?\317o\275\345\210\323\274\341tU<\234\203\010>\215\003\306=P\307\205\275\334\276\203<\202\263\337\275b\345\010>~Q\\<\202\273\022\275B\262n<|\346\021\275\326k\236\275\006?\200;t\316\304\274G>\353=\024\354\211\274cZ\336=\360\024\253=b\277\221=BZ\n\275c\373u\275\360\374<\273\342*v\275T\242\010=[\0101=\335mc=\014n\002=DB\210=X\314\002\275\320\357\342\273\365\306\335<5\351\034\274/\"\252\274\300\240\263<C\242\246<\323\370\206=\230\021E=6\206\317\275\215\205\334\274\333;\237=_e\223\274\340\376*\275\220\323\261\275V\263\302<\027\347\204=G\322Z=5\334\006\276\245A6\275H9\277=\016RV<\2166\343=M\247~=\217\303\266\275D\314\210\275\214\201(=z\346\"\275\030*\266=Y\2462<\363e-=\325\337\221\275v\326\365=\245\204\336\275\335\266\357=\020\037\t\276x\356\220=\\\247\252<\306\251\204\275\366\303\n>h\353]=\203\221\026\275\367K4<&p9=\252\300\351=Qq\326\275\r\027a\275`\226\335\275\177*>\275 \n\323=\220\271\214=H\355\205=\353\207\222<\306[I<#\220W=\007Ex\273\016Gr=\276\300\354\270\337ja=\205+\033\275\031\230r=S\354\026=\341\205\241=\371\221<\276\241\315\026\275Z\335s=\306n\370\274\n\215(<u\353\030=m\031\027>\311\0254\274\t\036\315\274\325\270\267\275a7\373<\371\224-\2748\033\255=\243\2728=\005\033\221\275\371\271(=\\\036\220\275hcV\275\255XM\274\244\017\002=.\005.=\351\246\376<\270S\225\275D\366><%\200z\275\304\013\340\274\277Y\243<\027G\273\275G\340A=\325\345\316\274\200\254\226\274(\002\242\275\200?\207\275&\216\212=\377\236\217=^d\215=\177\235\016\275qVE=\302\274,=\211\201\334\274\375\224k\275\277K\262=\032{\346=\2712\227=IP\273=\264\316\270\274b\374B\274\324\276P\275\202\366\261<\nLO\275]Y|\275\267\2073=\357\030\337\275\311k\252<\356\033$\275\362\037\312=\020q\240\275\230\215\317=\241\247\016=\0308\221<\244O\004\275\221\023\213;\337\373\313\2754\324\263=C\354\007\276\205\027S\275\221\232\213\275\r\203\010>X\200\305\275,\000\004=-\236\244\275(>\010\276\360{\213\275\202\304e;\325\360\220=~\313\253=\321\327\375:\017Z\017\276O\211\254=.\363\230=\343\307\323\275:\023b\275`\350\016\276\327\355\037\275\002\214c<\3235=\275cZ\247\275\022\006\315<\205\335\205=\331\204:=w\242v\275\3579*\276\037d\337\275i:\317\274\017\320\t\276r\226y\273p\234\325\273*^\022\275\365Q\357=\254\203\360\275,\"K<\2621\257;\223\020-<\250R\247\274xD{=\037\253 \274\262\355!\275]\\\214\2754mg\275W\214\236\271V\341\355\27491\262\275\224\361*\275T\264\376\273\355>\016\276\245\255\277\275\375 \202=\\)j=\tp\000>\316\211\324\275\033h3=J\240\307=a\263\346=\233D\002<qa\006\276\240\025;\275@{\216=\377K\210=\320ik\274\r\237\251\275$\331\226\275\221\212\313<&uD\275,C\201</\252\376\275\270/L\275O\3023=v\214\205\274\251B\024=\035\022\372<\004\350\\\274\211\020\233=\272J\247\274\244\200\003=PU\336<\276\267O:_S\262=\200\202\262=\346g\303\275\222\313\231\275*\362\312<\306\240\252\275.\245T\275\212\033\031\275\215\206\221<\252\335\026<\343\351c\275t\220w<\242\312\361<\373\221\376\275\370\307\334\273\325\021\003\274^\240\203\275\315\014\"\273[\255\361\274z\206F=\323\335\223\275\373\257$<\276\335\266<5>\304\274H\211(\276+?\220<\344f\004\275\344v\022\276\234\354\017\274\347\201\266;\246\247L\275\341\260\036=k4\276\274!\013\310\274\007\213\312=\267\3316=\022\247\232\274\223\032\223;\005\334\344\274x\275\375:\242\374\317\273X\323K=G\213\227\275\253X\024=\311@\271\275\202>,\275\211\022\341=@u!;=\255\230=\312\317\260=y\303\017=\204]r=_\206,\274\017\3709\273y\220t=\374\340\233\275\357\227I=Y\001\310=k\207\346\272R\031\274=\321{\325\275\245\221\277<M4\300<\020:^\275\374\275\211<x\352\023\274\360\312\255\274\341\031\366=\025>\301\274\364{}<{u\314\274N\'V\275\254\377r=\306\215C=\016\310\306=9\315\356\275\251\260\202=B\231\n=/\272\331<7\307\002\275yS\313\275(\033\023\275\004^\234\274Ff\276=\000@\201<C\317\303=zT\260=m\266/\275|t\016>5_\210\275\247\030\265\275\2466Y<\261\233/=\001\247\352=\342\306\230=\217a\026\275\372-\212<\304\236\214\274\275\311\001<M{\267\275UZ\333<\373;9=D\t\324\275\321w\254\275lkV=\373z\255=G\032\322\275\223\323\370\275\377\033\211\275\344\365<\275NG\211=ym$\275G\375\016\275~\374%\275\344\226\213\274Crv;sf\234<k\340\245\275\277\006\254:\034\336\022=\303^\364\2757\350\306<\325\205\214=`\274d\275\261\225\251\275\334}t\275\217\3158\275w\232.>\247\247\306\275r#3<\363^\375\275\260\202\325;>b7\274\035F\267=\340\320\031\275\230xi\275\362\031R\2753l\325=\235\317\313\274\326\216\303=`\330\222\2737b\020\275\304\216\000\276\007.\222=qD\247=\207\017\017\275\372b\317<\000o\001\276\377\n\017\275\227\300\306:\352\020+=~G\303\275`\313\336<H\027\355=.O.=\206r\311\275U}\"\275u\021\264=\324v^=f*\204;\002H8\276C=\270<\002!\022\276\251\n\301\275\261\267=\275\200\022u\2758\272\317=\376\224\007>\313\224M\275OD.\275\240\337\300\273A\307\211\275\303\231\277=\205\2710=yGU\276~\304\036\274\014\356\332<\321\344w\275\013\027\262=\"\367b\274\\f\313\274\302\365\312\274P\353\237<=\216;\275**\201\275\342K\227;\032\002\007>\000\265.=\032\366\221=\021sq\275\325j\316\275\321N\203==~4\275\031\251^=p\361\324=\005\246\023\275o\001\324<\014M\347=S\264u\275\211\267\275\275\320i\227\275>]\320\275U>z\275\3079\313=\356\240M\275\252}+<:h\002\275\264\r\236<\226#$<\246\321\312=]\320\226\275\034[\274<\326\r?;/\310\212\272t\007\r>\tl\271\275x\214\274<[;\036=1\366\013\274P\226\321<\325\351\027>\355\014\310\275\202\014\352\275a\356\310<\006\204\010=\'t\026=W3\221;\264m2\275\3676\341\275\007\351\340<\350\330\264=\241\004\304\275\034\210R<!1:\275\004\204b\274\333=\247<RP\302\275Y/\204\275\365\304\005<\322\214\225\274\327\264\010=\352\037\200\275\262h\364\274%\027\001=\331V\367=\013\np=\272^\255\274\223\244N=\217\253x\274\006\272+=\362\2506=\217\215J=c\361T<8\210\036\275\256\232\303<\251\340\324\275`u\003=\263\204\307=\216L{\274\327M\224=I\260\033\276\236\237.=\360T\006>%\3664<\234R\356<D_\030\276Y{\206\274\214\005\306\275*k\351;o\211\323\274\023\313\361\275\267\227\272<\260\274c=\257\272,>\302\264j\274G\271\027\275a\010\007\275GO\212\274zg\321\275\264\215\020>)\014f\2755\022\013>\010%\223\275H]+=1$\221= \203\216\275\367\340\304\274\230\300)\275\211\375o\275\036q\257\272\007\253\317=[\303\303\275\361\371\373\273\225\222\336\274\355\350\236\275LYn=\311\237\225\275r\'\273<\020\333\341\275\274<\241=m\370\004>o{\216;\214\347>;\204\307\">y?\310\273\261f\010\276g\013\324\2755K\033\275@\350$=\206Y;=\007ra=S2\022\275\273\213==\177\212\237\275\t\341v\275\232\n\307;\310\261t\275\307uc\275\277\037\t\276\336\004\031\274U\036\256\274f\2531\276\tR\232=bCT\274\346Su\275t\013\342\273\244\374\326<W\304\006>nr\364\274\201,#=g\326P\275\365.\374<\343TQ:H\030\367<\346\354\022>y\331\022<-BF=|\036%\274~0\177\275m\255$\274f}\021<\340\270\243=\336e}\275\225n\030\2765u\'\273\361\031\236=\245\357\244=T#\023\275\311\217\t\276\373\372_=\221Q\271<\327\223>\275b\203\310;>\227\254=\260\202\264=+$\037=\034s\340=\022\341\\=\276\031J<\250C >(\n\316=\347\336\227=\340=k\274\250\323\353\272B\365o<\225\227\352\274\307\362\207<\014\204\204\274gi\351=\305\010\337;\243\'\255<\004?\023\275\204\221\225<4\277\306<\017\316\227:\033\351\227=s,\245\275\025[\253=\016\265\356\2736\0309=b\tb\275\005aU=<\014#<H\007p\273qq\245\275\214\200r\274ar\013=\362\331:\275d\356\254=,\364}=\255\202\204\275\236`p\275%\243}\275G3k\273\227-\225=\032\256\230\275:\364\007=\0231!=\223&>=32\265=\316\331\025\270\032N\344=\031g\327\274\314\247\257\275H/\005\275\032\211\3239#N-=\262[\311\275\210\356\220<\255\305\305\274C\025\025=\002\216\203=\371\242\254\275v\277X<\023|;=\331\001\254=\264~-\275\276R\346\274r\007\000\276H=4=@\224\016\274\024\225\353;\360\323\356<!Zl=Z\372.<\244\314\244\274\321\235X\275\323\364\320\275\017M\366\274\037K\242;\371\251\007>\3050\276<\316\351\177<\343\370\273\274q6\200<\317\320W\275\227\266A\275\215\032\275=S\273\310<\272)\300\275x\253C\275FZ\241=jR\311=\363qz=\020@\274\274\001\366\254\274\0241\351=\242E5\275\247\304\021=5\212\251;\337Qv\275\314\2106=\307\010\325\275\314\371\326<\251\301\030\276\234\343\203\275\201)\003\276!^ ==\304\252\274t\333\311<U\034\225<\333\320M\274\335\202\357\275\342\371\213<\314\342\272<\005\317I>\013\263\241=\354\340\356=\315H\313\274:\267\330=HE9\274\240!\241=\341G\000\2764|\305<\032\247\035\275\t\215\350\274\005\032\201\275\356\235\325<\236u\'\273sy\234<&\200\353<+vp<:}h=\350\307\317=f\262\331\273\362t\205\275\242F(=\246\233%>\233\211\366=M.\t\275^\323\377\275\374V\031\275\\;\322\274p\343F\275>F{\274\016\037\237=(!\322=\272\352\231\274\236\257\\;\204s\001<\032\246\016=l\037\000\274$\340\233\275\212B\273\275\\\000\255\275V\215\026>\232\210\t<f\002\026=\215\027\361\274%\356\323\275N\254\222\275\005\3466\274e`\243=\223S\215\275\035\353\271\274$>\245=\212\254\275\275\374\314+=\331\270\374\274k\343K<\373\272\364\275\256\376{\275\317\177\027=\244\211$\275\352n\024=\024Q\254=py\">\201\343\340\275\033\246$\275]\264\344\273\000\310l\275\332\223\362\275y\331\031\276\314\257I=^n\315=\200\022\262=\375\327c=&\020\030\275Ci\036\275:\253A=\014\245\350\274\207\222\'\275^a\220\275\037{\322=b\\\221=M*\030\275\2657\206\275<y\206\275\315\302\205=7\263\206\275\014\231\305\275HQ\260\273\204y\262\275\345\231\361=\231\366\024\275\357\323$\274\212@\237\275O\351K<\360z\016\274\265\020\252\275\221\205r\275\347\263\273\274\324\263\242\275\3146\216\275\244\315\361;\034\026~<\200\310\002\274]-\350\274\231f<\276\373R\316\275\343G\216\275\035\342\311\275-\261l=\022\025P<\356\360)=\245\376\315=\001\020\235\274\370\n\n\275H\326\251=\325yk\275O\377\245=\0109\221;4\"h\275\323e\016=\201xe=\336\351\371=P\206;\2758\300\222\274\0319{=T\362h=wh\264<\221\2012\275\333\006\321=\315\365\230\275\027h\234\273\207\236\345\274\304V^\275\334}\032<9\250\367=\337\356\225\274\325\350\241=\202\353\013=4\253?<q\216\241<M\322\337<\277\254!\275\350\277\024\275\231\342\n\274\234u\304<1*\347\275\307\004\367\274\030\253!>\272D#=\241\305\017;g\270\341=7\231S\275\344\245\310;\327\'\220=&\266\301\275\273\2367>!\354\271=z\256<=\306!\211\275\376&\246<&2\277\275\300\3528\275u\337\233\270C\325d\275\236\251m\275Z\207\020=1%\377\274\207\230\326\274e\345\033\275\346\312\255<\203kV\275R\335\245\275s!\265\275,\256P=\245\242\354<w\322\010=\037\370\234\275q\365\007>\212)\024\276\316bw\275D,\270=\'\361D\275\261\375\257\274\2052\235\275\032z\002\275[rN=G\320 \275\225b\313\275\372p\030=\021i\343\274\322v\003\276,s\244\275)\210d:\026bM\275\230\204`\275\321\326\027=\010g\260=\010\304\313\275{}\006\275N\362\264=\022f\033>\021\373\203<\260\277\027>\010\315\237\273\320\252\324<G\371B\2750\307U\274\337\035\033\276\312\236\336\274y.p=\231\033%\275\265\321R\275\377^f>\001\004\256\273oW\004=\300i7\275\314\317\323\275HK\033=\2042\026\275\232\376\363\275-3\354\274\210\033\231\274\033,\262\275\351\272\307\273P*L\275g\342\277=\247)\240<\377|\340;\245\177\250=v5\242=N\001A\273\210\nG=\203O\221<\266\003h\275\347,Q\274\006\014U=^\265|\275\025\354\201=q\330\000\275\224\307\220\275\237d\301\274*\237\267=\224:a=\245)\330<\031\371H=\337\200\334\274fZe\275\205\343\005=f}\020=\311\036\315\273\000\3217<%\030\367<\001\326\233<d\031\250\274\270\275\337\274f\007\366=\321\240f\275\202\233\310==LB\275\257\306\375\274\360i\004\276~\347>\275\230\220\224\275\331\246\213\274\224\025U\275\336\355\033\275\0003\316<\266\'\372\274\223\350s=\271\347\024=\300\256\224\275\267\374\223\274\2735\271<\r{&\2759\033\253\273O^\375\271\333\264\267=\313lq=\244\t\232=d6\202=\355uK\275o\351s;x\234\243\275)\244\002<\301H\264\275\031\034\244\275\255\266\300=\255\206\251;\215o\242=\2564\235\273\004\350#\2757\375\263=\035\354&=\336\342\206=D\273\221=\315\214\335\274\276\251 \276\220d\224\275,\264\307\2755{\271\2752y:\275\177\241\240=\001\251i=\023\357\352\274\231\3212=AF^\275\213v\271\275\302\3218=A\036%;\032g3=\004\317t\2741\241B\272E6\261\275=\020\301\275U\202\225\274\227\220C<\301{\001=\021\030\203<(\025\304=\235\267\000\273\030b)=\216\347Y\275=`G<\253\353\303=)\373\237=-b\355<\224\364\267<\334XS>z\355\317=\2008F=2\360\277=\240\274\250<YA\327<\373\n\026\275M\001D<\033X\000=\273\200.\2759\243\236=\256\224\031\275\177\240\252<\336\006\251\275=\034\335\275K\315\234=\205\032t\272\305I\021>\316\307\\\272\340N\247=$\'\177\275I\313\210<\376tt\275\300\206P\275V\'\225<\027nH\275\200\301\234;\243\377\211\275\002ry\275Agj\275\200\351\275= \236\362\274\304\300\211<\023\357r;\313D\204<\211VN\275\344F\241;\374\320\021\275\376~u=4\227\222<\302\002\274\275}\313/>j\225\014\273C\'\201\275-\023[=|\225\031\275Y\307\211;?\022\271=\327\215\"\275\272\224\333\274\310o\320\275G\347\205=\'\312\013>}\376e=\254\034\361\275\024Z\345=\354Cq:\032\315\003=\264\310\247\275\333H\221<\263\205\033>\230p\214\275\247\'\253=R\213*\275\237h\313\274\242.V\275\206\026\301\272\311\310\241=\212\273\006<P\215\245:\352q\000=\027\273\362=m\'4=?\231\304=\314U\003\276r\271\003\275\032\030\266=\002\243S\275 \321\177\273\tl\320\275\346wu=VS\323\2755qs<\301\322+=_\326[\275\317\033\337<`a\357=9@\213\274T~\212\275\227\305\267;\013\335A\275K\0310=\357\243\347\274\213\027\033\275\"}\225=7\n\210<\344@<\275\341\2435\275&h\032\275D6\370=\023\253\204=O\254\233=\275\243\321<\202\257F=\225\304\r>\005\"\214=;\310\313=\320\030\271\275\237P\354\275\256\024v<)\177\251;o\276\243\275F\3538=\236\250\227\275]W\230:\317E\374\275\032\017N\275\363R6\275#% \275\306\210\000\274^\244\356=$\270\024<\302\177\360\274\001\224\312=\026\3507\275L\275I\275\253\345\206\2755\240\203\275\364\030\267;\371\000x<\002/c\273\256<\306\275\033\024\277\275Q\343d\275\025\256\261\274\020\205D\275\250\200\305\275\000\'\226;\247G%<~}\010\276\001\027)\275\255\344\2318\023\264\260\275\354\027\213<\276\235S=r\337\252\275Vd\005=\023,6<f[k=\333?\t=\nn\"\276\374_\207\275\026\350\241=\240<P\275\320\3633\2769W\002\276yF\021\276\251\341\373\275\241\2318=\207aM=\332\310\302;\351\355\217;\034\206\276=,P\327\274AQ\231;\204~\320\275u\250{\274{\267T=\250\302\323\275n\260\027<\000\205\202\2752\262`\275\303\272\025\275\234\356->\352\316\331\275\245\251\312<>y\321\273\305G\224<\005X\232\275\316s\026<\201\345\342<\324\002\303\275}\2722=\215\320\276\275A%\037\274#v\036=a\221\006\276r\327g\275MD\256\274\341\273}=\200Q\023>8\037E\275I\376\243<)\324\213=\246\020\202=\\\312\227\275d\"\032\275j\001J=\326R\204\275\315\264\352\275\361\031\032\275\202\251\032\275u\036\244<G|\027<\276\3276<\322K\263=\231\013\200=Q\004\326=\205\230-\275\334\300\007=1\214\r\275\371o\254\274$\375\351;9\023\302=F;\203\275\213\367c=\215\366\027;;\233Q\273\204\222;=\301(\274\274\217\332\364=\247R\324\273\215\013k<\247>\001\275\343\337\220=#\275\000=F\276\252\275\202\3513=\263D\306\275\026v1=\370\316\204=\245\nH\274\035\036\222\275\000\200q=N\375\212<\005\275\326\274\212w\307=Rp\344=\271\222\206=\247(\326=\305:\374\270\214\320\007\275\272\347\267=\310m\376\275\003\023U=\321\272\310=\266IC<\350\303\007\276\217\333J\275\030\010\211=\334Td<8\356\316\275\320\'\313=h\370\316<\372\273\202\274o9\307\274\326x;\275\343t\026>\265\301\355=\037g)\275\241\2601>\036\322\017\275\335\'\344\2753<C<t\240_<Yq\226\275\230\256\216\275\236\340\302\273\3144\021\276!\345\023>\243\037\246=k\310(\275\032\005\211\274\350\261\321\273?p<=\204H\260=\035A\340\274\216W\234\274n\370\336=4.\017\276\325]R\2751?\270\275\002\257L\275\223\n\n=\3556S<(\272\372\274\305\332\203\2748vl\274\333\026\247\273\316*E\273\251]\034\276\232\332\020=\341\326\237\275\033\376\271\273=U,\275<U\257<k\2655\275Ew\\=\365g\366<\317\353n\274)\252\220=g{\003\275tk\212\275s\276a=\304\004\205=yi\224\275\311o{=M\3379\2756\354\234=\345\037\300=\351\307i<\322\351\020\276L\366\354\273\033\206\212=\177$\226\275L\224\316=\274\300\025=\312W\311\274}\316T:\260\277\\=\023 \266\274\257&\020>41\226<\177a<\275\366\020\221\274\013\221\t=\323\221B\275\3150\226\274\223\367C=\214\254\300=\275\3419=\326v\351\274+,\212;\257\177F\275 \372\231\275\205\343\000>\230\036.=\344_\312:i\221\205\274\343\251\313:~\375\253<\213n\000<=d\027\275\271\022\351\274\220\231\213=I[\304\275\2459\023\274\225\201P\275\337c\242=\267\236\272=\r\202\177\275\350\306\006=\323\253\003>\311\316\217=\016\206\372\275\251\377\014\276\334\035\275\275\301v\023=\311\037\223\275gL\236\275y?\014=\377k\304=\t\355.=\356\000\332;+4\020=\366\002\204<\177\t\343<\307L\371\274\257Z\303=\260\346\234=\006j\210=\346\346S<]\030\304\274\353\277\t=\'\204\265<\322\236\363<\032\006q\275\355\"\210=\305k\313\274\357\211\356<l P=3\004\350={7*=E1l=A-h;\203\316\214\275\363\204\325=\"\357l=\273E\226<&\215\251\275\253\352G\275\3079\274<\207\017\200\274t\247\374\274\213\203\005>\204\265i\275u\001L<\004t\226\274$\234\303\275\322r\273;04\207=\351\020\307=\\\t-=u\271\244=\014)D\275\367\315f\275\n\277<=\303\262)=q\336\345=\027XQ\275\305[==]\221\307;p|x\275\354*\301\275\026\361c\275\343\374+<\352`\275\275\035\346\367\275m\016#>\204\030\010>\2360\331<\225p\246=x \333\275>u\024\276\021H\006\275\242:\271\275\303  =\342\207_<\304\254\251\273\024V^=\000\341f\275\033\376B=$3\031\276\303p\372=\363@\273\275RW\021=\20185=\2666\r>\3060\226\274\266\t\t>\345\233]=s[Q=Q\356\245\274p\254\242=A2]<\037\033\035\274\010\266\204\275\'u\t>\010\030\361<H\2322=\365.\235=\270\272\321=9\t\334=\375\022\027\274\232\010\263\275\373aw\275c\220s;\237\202H\274\037\323Z\275\374\324I\275\337/\366=IL\002\274t\224\271=b\234\245\2757\244\316<9\002\316<\224 Z=X\312\274=y \225<\212\275\034=\337Hf=J\357\265;2}\372<\360p%\274\332\276\273\275\216\315\336\274\351%\303<\242\000\016\276\017\020C=\312R?<\351\371>=\371r/=8\270l\275\305\310\274\275\235L\274\273{\244\346;\371f\277=\345u\316\275T\2311=\037\243\265<\230\304\321\274A\340\203\275\r\317~\274\014\021\330\274_\227\031=O\017$=\206z=\275\0308\357\275\353\n\003\276?\257F\274\210\257)\276M\023\270=v\326\225=\014:\306\275\370+\332\274\375\313B=F\225%\275r\340\255\2742M\355=n\226\246\273\226o\371=\262\237.\275\326q\022\2768\321\231=\346\317\024>Q\322\213;\311%*\275\032\365\202\275\217\245\251=\177\316b<H\272\365\274\235\233-=\240\317k;\r2%\275\013\221\322\275\340\241N\275`d\221\273E\352\007\275,\300\260\275\377i2\275\014\030.<r\316\333=\306\'-:A%\2137\326\276\233\275\202\373\366\275\337\314\300\275Y\374H=\217\346\205=\333YM>\256Y\352\275\221){\274!Q\234=58\035\275K\273y\275e\246\212\275\342\021\006=\037D\305<\'})<\002\001\3549\335\330\004\276=|\237\275a\3462>A1\215=\372\255\232=\260@<=v\257m\274\304\0074=\242\267\337<y\354\217\274A\351\307<mT>\275\271\231\244\274\262\262Y\275G\021\302\275\036T\354<-\247\037=\366\237\006>\033\357\261=\221r]=\331\nn=\022\211.\275M\273>=\215zc<ooj<um<\274\037]\331\274\265([=\233\\\t>\372\3771=\303\376\250\275j~w=\215\303\032\275W\325\245=\300.N=\3006\315;\314\033\340\275\344\245\347\274\020\002\326\2741\3743>\207\262\217\275\211\204\216=d;\030=I\342\321\275?,\322\275\007\237\321\275\341\3073=\"\353\377\275nY\247\274\231\242\340;\3261L=\301\2324<z\346\000\275\215I\356\273\264H\252\273\323~\225;U{\3509\336\366\210=au\020\276\033D\336<\2507\350=v\251\017>JR\033=\305\267\336<\370Z9=\207\020\212=PI\357\275\254\345\245\275)`\346=H\374\213\272\000\227\270\275\214\316\016\275\353,\322<8\262\231\275\247+I\275\250\364\220\275\355\371\270\275\213j\224=f\337\370;\316\302\214\275\260P\242\275\3632\207\274\2304\264\275\022\025\033=\254\352\022\275I\355\037=H}\245\275B\254f=\327\347\205\275\227\343L\275k13\275\271{l\275B\017\331<\313\262\213<$\263\275\273\210\314\341<_\212U=\364\216\246\274P<\026\275\330M\005\276\335U\223\275z\3141\275\252X\017\275\327\314`\274\240\010\376=\237\274\310;>\220;\276\230^\204=\314\372\224\275\262\013\267\274\350\245\360<Q\366:\275_\242j\275\252t?\275\203\345\223<H\001\277=\267\n#\274)14=8\276\177<\317\210\226\275)\237\351\272\327\001O;\026y_;\31521=\261\203\326\273\353\346m\275xQ\272=/>\312\274P\375\024\276\327\203s\275=\217\r>D1\271=\267\360N<1NH=\031S\343=>\330\030\275\027\357\220=\317>C\274\335x\355\274<\236\216\275\020\2570\275\034\260\253=\206\225\265\274\265VJ=}\323\377<\327\363\233={\033\226\274\335\262\010\274\257\010\030<\003\221\017>\035\364_=\207\220\206=\261\236=<Y\204*<V\257b=\206M\232=\210]%=3(\211<we\234\275Q\224h=v\2144\275\203S\304\274@\023\265<\342\212\031>\212f\"=y\374\303\275\314L\'\2750\361\324\2758e\257\275v\032}=T\337\231=[\246\256\274\240\332\006>C\001z=W\306\254\274\213g\246\274\2731\230=^\221\245\274\251\227\344\275_\303W=\230\241\220=\201\355\263\275sL\346\275\372\3049\274\313m0=_,&=\355\376\257=9A\336\2740/5=k\036\326\272\360+S=\356\037\3317\303\017?>\306\177\250=N\257Y=\357\350\313=\263~\242\275\267\261\305\275\027\246\277=\n\021\304=P\025\337=\360r2\274\343\007\234=\214\"O=Y9\305<\233\0071\276}\025\243\273\344\241\231\274\366K,\274\344\310\206\275\023<Z\275\223@\026\275\312\\!<\344\362\233<\363\316\032\275\010%\246<3\2630\274>J\300<\265\\I\275=: =H\274,\275\337\235v\272\243\016\004\276\326\000\220\274\330>?=\026=\315\275$\212\200=\017\356\256=\344\231\321<\312[\031=\301\221\274\275\335P-\276>\257\324\274bs\310=\316\256\035>[z\022=B)\t>x\363b\275j\230(=\233\226\004<~0\264\271\245\316!\275\314\332\321\275 \351\310\274x\331o=\344\275\354\274m\271\243<p!P=\226\333\034\275\277a\271=\331(\363<\333\341B\273\364\215&\275\3318,\273\310\036\225=\337G[\275\375\030\256;\360\275l\274\257_\340<++\231=\325\342\375\273\220a\267\274&\344\331\273b\217\325=e&f\276\354\264\235\275\324\262+\275T:\223\275\312\276i<\252\217\177=\321i\222\274\265\255$=\206\332\237=m\375\234=hA\217=\233\352^\274\314\312\202=\352f\355\275\372\251\214\274A\205\360<\250\n%<\265c\273\275\t\365:=oC\324=E\004@=,\356\223\273\233\207\276=\372\361\006=\000O\314\274\333\'\264<\005o,\275F\216U\274\210}\340;\250\202\003=dl\312=cs\003\276\240\310$>\262z\224<\20647>Mf\243\275v\304\037>\204\340\320\274d6u\275(\n\003\276\\ \245\275V\347\033\275F\035\t\273\2565\376\275\255\304\263\273\033\204\264<\317\324\363\275f i=d~\202=\2650\034=\273\\\211=f\355\241=\233>y\273\034f,\275\031\007a\274\223\256\236;@\032K\275\027\225\210\275;B\n\275\3245\270=\3635\006\275\371q\037=z\263\016=\361^\007\275\270\0011<h\257q\275\376\"\034=F\273_=E\304\341\275\274\350\320\274\317\207\367\274\263\315\203=\303\231\205=\014di<\363\376\231=\362\355\321\275\356\262\204\274\266\2006\273\261\022\326=U\335\003=\251k\203\275\357\261|<\256\352\247=\211\200*=\220\014\255=\274[\267=7\226\202=\321\0327=\341\273\342\274W\331\246=\"\"V<?\304o\275\317\255)\275\036\001\370=\2142\252=\236\236\337\273\350\273\300\275\222\265\274<\257\325\247\274\357\313K\2740\031\020\275\3211\275\275\364@+\275\036\2754=\036\3171\272\323\242c\273A\350\025=\001\307%\275\002\016\305\275D@j\275(V\255<\032\371\001=\225j\016\276\234\210\251\274\236\204\204:\213tF\272/\233\022\275\312F\313\274\335\1779=\010\230m\275\321r\245\275\265\205\306;-\021K<\2617b\275\234\2143=E\204\217=7\242\320<W\315\231\2730\367\245\275!\246\216=\250\275m=Q\215\373\275\304\221\000\275\3535\220\275 \346\021=\227\300\271=\242\376\313<\275b\277<\336\235\361<\002\177\320\275\254\356\344<)\200\232<\342\327\326=~\244\307\274\353\232?=}\2054\276\215\377\t\276\321\'\220=\367+m;tq\323=}8\254<\3628(\275\312\240X=M\340\207<\330h\r\275\021F\035\276\310r\226=\332FK\275\216\256\311\275\275<\263=\323\362\006\275z\201M=\377\307\306<\362\346\226=\307\312\227<)n\031=b8\254\272U\331\206\275\217ab<\252.\336\275\230\321\273\275x\254\343\275^\310\242:\033\357\035=\260(g\275K3\224\275\361\026\254\275\271VZ=\260\247\361\274\016\223\322<Kh\025=W\035{=?Q\n\275\221\"\200<\327\250/<\216\014k<\021\235\225=\r\213J=)5\214\275\327\311\034>\356`\340\274\332\\A=\006\322\312=\214\221\275<f\302x<\225 \030\275`MM=l\326\273\275`\200Y=n\005\027>u\202\\\275\312\3354<.\370\357\275:\230\202=\355{\355\274\227\035\354<\031\256I\275\236M \276\342\033\250=\230\265\036\2762\266\260<\265\253d\275\303\2038\275Q\372]4\201\021\013\276\364\232\327=\227\301\017=\342;@=i\014\025\274\327\303\266\275`\020\300\275|\220\200<\0045I;\033?5\274[\322\333<t?\224<\014J\343<\370d,\2757\340\032>[\233\306\274X\273\377\275\326z\320<w\'\014\275\177~2\275\217\227\304;2\037\341\274\373g\274\275\251K\310:\271O\272\273l\235\">{\323\017>\254\232B<zo\335=\355\036\346\274.\204\276\273gd\345<qJ+=\023xP=5e\307=Cx\r<\305[:\275B^\017>{\303=>\004b\315;\242\267\215\275r\246[\275`\351;<:\275.\275K\224\022=i\301\304\274\240\314&\275\331!\366\274~\340\001\274\226\035\201:\312h\272\273]\215\314\275_\332h<\316\201\273<\270;6=\274\353\222=\211H@=N\027\357\274W\"\025=\307\032I\274\374\225\215=e\031\244=\t\357\234=\343\276\273<\266\022\335\275d\301\223=\270G7\275\213\037H=\225.\037\275xo\217<RW\250=\247!u=\227)\361=\270\342\001=\307G\217<\2359p\275\324\213(<\344.\344<\324\214,=>\265\237;\031\231\277\2732\217\355=\212\315y=b[\360;\306{-\275\031\324\211;\037D\017=\235\221\366\2747\202\335=\027\0130>\014\265\330\273\005Y\201<+\207\213\274\223\227\342\275\"\033\203=\276G\230=\304\327\024>&\312\n\276\"!\016>^\221\356\274\346\237+\275J\303\013\275A[9=\200\332\365=\230\364\276\275\250\013^\275\306P\356\275\354\351\211=V\340\n=hp\302<\202=\262\275\260h\322=\350m\271<\036M\017<\340jN=\023\255\214=\314\315\'\275\242\024\244\275\026(~\275\352s\334\274\004\\\331\274\206[\023=\3376\032\275\302O\204\275\216\001\244=1\336\225\273e\250\354\275\023-\337<X\000z\275\315\202\312\2757\313\004\275i2w=T\225\274\275ArQ\273\020-\205=Hx\206\274\nj\017=\333#\010<\023:m\275<\031\244\275p\275\357\274z8\017>Z\322)=o\307\352\274H\206#;\213v\370\275\000\215[\275\216n[\274\341P\006>H\370\215<\270\370\371\275\010<\024>\"\336\177\275E\353\355<~\332\271<]{\022=\025\277\204\275\263)\336\2746#\350\275\022\035\322;\013\tf\276U~\250=\021_\310<NA\321;\203\353\273\275\013\3414=\215AE\275+|y\274\307\376\201<h\221\251=\332\025\225=\363\265\342\2736\350\016\275!|\310\273?\376\275<\363<\264\274\340\177!=1\200\337\274\316sE<\250P\364\275\363x\264=do*\275\332\005y=\363\334/\2750\n`=0\007\220=\345\004\247\274B8i=\201U\210\2748\352\274\274\213v\361;\374m<=\202\274\203<\334\302\013\273\\\362\t\276\035\204\272\275\231\020P\273\337c\365\275\364*\321\275\244\005\323;\275^\\=:\336X\273}\361\226\275\227\000\260=\255`v\275^w\323\275\371\303(\275\361P\240\275J\356\005>\000l\271\275\302W_\275|\034\260=\014{\374<\371\026I;+B\264\275E\224X<\246\327a<L\336t=\350\255\020\276\022\201\270\275\332!\270\275\255[\350\274\006\250\244=Q\314\305\275)jY\274\022\237\037=\266\226\235\274\214\2510=M\232O\276\201O4\275X\311\200=\336\017\273;%r\004\276\360\r\304=\312\376\331\2744\215\346\274p(\032\276\262\360)\274\362\r;\275\325My=\233\262\033\274:\035\203:=\314\266=4I\330<j}u=\\\216x\275#\014\004>\035\302\314=\004\241_<hs\372\275\201+\245\275\356\224U=O\300\263\275\032\207\221=0\254\300\275\350\035\350=\237\275[\275\276\017\274<\254\210\006\274q\366\212\275\372U\361\274\343\276J<BM\267\274\3745\217=\314\340v=\273)\256<\204$\017=\313\272\035=M\344\241\274\033\033\200=Va-\275\274\367\256\275\000\350\\<\214\2536\275i?&\275\013\246\250\274\363\267f=XhX=@\335\311<\306\302s\275\026\010$:\023\303\254=X\305\216\275\3307\246=\030\273\000>Z\'\322\2745U\246\274xP\227:\3172\t>\236\376\253=L\256\022\275\267/\003\275>\210\213\275\260\327\016\275\313)?\275\323W\020\276\212}\214\275G\323$=t\000\010\274\343T\222<\313P#\275\r\2624\275J\375\245\275[\2256\275\331\370\303<\222\211\264=\026\203\221\275f7?\275,L8\2743\362\227=#Q\377<kQ\213\275y\366[\275\237\212\301:\233t\344\274\375O\275<@1.\275,\332\265=\245\027\354=\257\005F\275\3049\376\275\336!W=\307.Z=P\231\217\275\303f\250<#O\242\272\006[\342=\025\220\326;\377U&=I\325\272<\213G\013\276\201\377\342=w&\363\2748\354\242\275\224Nm=\2356\002\275\262m\224<\"\313\207\275a\342\345\275\243\224\n\275%6\013\275\217\271\270=\004j\265\274\274\3200<\031\216\211<\316\301\252=\300g\214=\301\227\306\275\202A\340\275\203\325\340;\254\2729\275\316\227\013\275P\303/=Fg\016>\271uQ\275P0\206\274\034CH=F8\273=m\215\211=\342\354\306<_\215#\276\377\2701\275\307\016\002<\306g9>\367\\\240\275\266\250v\273;\376\014\275Fy)\273\003\304\361\274\027j\027=\257\366\245=\222s\273<\256\204\251<\364\2041<\317\352m\275\'\nI;\334\310c\275\363\213\250\275\323f\t\276\325Df=FV\034\275fXL=S$p=k\224.<\266\023\300<\277e\017>\232\017\367\273\024\255\266:\241\010\014\276\322U_\275q\270\022;\226x\305\274vZ\r=\r\240\226=J\037\327<\025T\324=`\353\025\275!\304\010>}\234\023\275J\336\324\2744^\272\275/ \256\274\375\220\302=#\370A=\273X\354\273\023p==\273Y\362\275EE\200\275){\225=\361\341J=\270\253j\274&p\034=u\035\206\274=U\272\275\2212~\275\333\357\372\275&k\030=2;\331<6\375[\274\241\343\231\275a\023{\275X\221\215\275\030\3454\275n\237E\275\333A(\2758\014w\273\275\013n\275\375&R>\n\302o\275\023\177;\275\204\367\360\275\325c\n=\206pi<$7\026;d\356\350=\361\345\340<7\364<\2752\357\302=F\n\216\272\325U\277<\356\304B=\035\016\033\2756\323\003<%4\034<\256\\\013<\376;n\275\330\322\251\275Un\317=/\357p\275\220\"T\275F\203O=\213z\005>\207\345\272\274mo\267\275\372\265~=\352\007\224;\353\375\203=\272\251\256\274\3315\261\274\251\237q\275\335i\324\2743\005\266\275\346B\227\275\304\273z\273\367\362\343<\322\333\305\275,\276\250=\215\356\025=\236\035\235\275V\371\313:-k\307=\005q\324<\334c\227\275\232\311c<#Y\341\275\253!F\275\251W\320=\321K;=\013t\022=\212\344V\275\nc\000\275\242\032\225<\211\030\246=0S\010=\017\211g<O\027O<\033\377\330=\315\231\241\275\262\001\232\275\000\004@<w}\307=7}\200=\305\324d=s\214\240<\224G:;\352\330\2338*\2441\275\241<\232\275~\035\n\275Z\205\327=t\304\310\274\341\200\341=\354f\355=\016M\253\274r\266\362\274:1\\<\304\036[=\342\243\220=\036\022[\275r\014F;\253\321\237=\246V\256\275\371\273\342\274\267\014\273\275\246M\251=z|9<\340\010\016\2753\020\262<ga\334:\004%\273\2758\014\252<\261l\343;\261\264\204\275\226E\214=_\306\344\2756\354\313=\177M\211\274,\363-=0lc=\016\201\211=2J\347<\234\030\217=\\\367\314=[\nU\274tJX=n\027\336=\227z\030\275\253\335\270=i)T=2\223F:m\212\275=\240\261\365<\0100\013\276O0\272\275\033\031\351\273\305\304\225=\242[\276<|gk\275\277r\r>fp\223\275\"\324\031<\246Z\030\274CE\026\2762\357\252;\030\203R\275\035\272P=\214\364a\275\234<\351<\251\223\224\275\2635\306=4\t\345=#[\341=\024\177\222=\n\307\235\275\231\365\224<\030\372 \275hC\200<R\305\230=\014L\243<2H\230\275\262\223`=\214\2320=!\345\322\275d\234@\274\360\213E\274\031Q\035\276vW\370\274\010R]<\030$\225<\354J\217\274\250C\355\274Q3\016\276!\201T\275\2044#\276\225\002\030>{3\242=\204\245\253\275\177y\027\276a\206y<\323\212\244\274`?\260<\214|\013\275\343\305\270\272\035Y\034=5\212\366\275O;\342<\272\323\356\275\027\313\304\273\314\301\323\275\002\rp=A\363g<\006\237@=\205$y;v\006~<\333#\250\275_\316-=\272W\205\275\000\016-\276|=\261\275g\370\026\275\217\031\321<\230\025\007\276c\266l\275\305\220\006\275d\327$>#rV<8\351\211=/\242\303: \361K\275\236\256\242<\0138\346\274\341\212\324\275\366\307P<\316\235M\274\315\376\237=\211\337/>\031\274\300\273\020Y-\275\333\2464\274\251\301\234\274\266D\013>`\235\277<\356\321\230\275A\300?<\346\352Y\275\353(\256=\020\334C\275\202;\204\275_\232\"<\036=\276\274\314U9=Y\227m\275|\221P\275\330\277\336\275\352<\013>)\273-\275~\323\305=i\251\204=5\353\307<=\314\210<\317n\210\274\031R\235\275\270*B=W/\310\274\303#\r>{\250\307\275,M\251<(\365\242<\0223\302\275c\3507==!\324;W3\350:Y/\246=\215_\313\275\264\276\315\275xr~\275\347\374\351\274\237*\203\273\037\022\252<\364z+=\t>\366=\036/\001=\261\330\020=\000\027\367=k\302\325<0bv\275\340e\332<ZP\252\273\005\362\237=t\265\274<\217q\250=\324F\266=^\257\370=\207\301\273\275\027\230&\274A\257(\275b\367\207\274\205\241\204=p\026\202=I\312\305\273\331;\244<\266\244\214\275\222\"`\2759&K\275\335,\373\274\334\231\010\276\262]\022=\366\1777<\373=\317=!\253\032\275\343\234n=\237\255\243<\000\321\203\2750\024j=\253\256\271=.\243C\274#t\026<\316\301P\275\342\341\265=W\344\237=\273\351\006=\215\231\212=O\345\231\274\035\237\253\274\n\350 >I\347\352=\362;J\275\336\220H<\274\364\365\275\314\302\336<\254\307\226\275u\001\256=\030\2256=\221a-\273\333\215\224\275\037\'r\275\370I\313\275\337:.\275\024{\322\274\243\264\003>\372\352-=CJ\221=@\262\330=Y\"\245\275P^f<\tWz\274O\337\033>\240\013\017\276U\351\274=\256=R;\005\\\323\274=b\262\275\331(\223\275\252\330J\275\325\274\220=\246.\241\274\314\311M\275r\224\302\275\260PH=fR\234=\361\324Q\275\031\221\005\276\233\265\221\275T5v=Y\350\242\275;\226\224<\205\036\260\275\257\261\261\275o\236\305=TxU==w\250\275;go=\242\203\027>\027\372z\273\004\367\010\275\013\266:=P\245\320<\033\221\200=E\241\362;\001\317\036=\262\314y<\360\014T=N\345\000=\245AZ=\377W\035\275\021\312\005=>a$\275|$\357\273iy\233<\330\370\202\275\2721\264\274\3773T\275\255sX=\361\t\345\275@(\251\275;\206\004\273h\354\374=\205\261e=\267\312\033=\035y\354\273\255p\210=u\331\317=h\203\245=LY\224\274\270\216\017<\313\035\261\275\017\257T<O\351\257\274\'\262\254\273\274\370?\276\370K\236=\226\343\213<\242P\225=\370+\264\275l\321\352\275j%\223;Q\016\r<\234\2706;\326sS=v\000\364\275\023s7\275%\0372=\366\374\276=\317\031W\275\020\206\303\275\n\321q=Q\227u<\344\274H\275W5#=\335\004\017<@\340_>t\231F\275V\362L\275\336\345\230=O\003\340\274\312\230b=Q@h\275k\254\363<\201,>=\253\350\307\273\000\373\236=R\231 \276\2647\233\275\203\225W=\031)\367=\372\266p=pC\240<\006a\230\275\000\324\013>\375:\204\275f$\265;\375\350\251\274\r\276\201\274Qa\272=\':\205;\335E\360\275:\3247\276\321\037\034>\251u\002=\320`\006\2708\0214\275\266\261\211\275\365W\363\272N\233\220=p^\375\273H76=\240\006\r\274\227\252\006=\023x\326\275\275~G\275\025\211~=\315D\022=\354\220\203\275\212\217\357<Ln\204\274_\276\320\274q\227\272\274=\313\237=\251\r\215\275\3379\343\274N+\004\275\000x\000\276\311\317\230\275\232Q\357<\274\311y\274\252\2742>\306\214Y\275\373\271e=\036\335?\275K\343j;\273M\234\275\014\t\272\274*\357\020\276\027M\204<\277s\372=8\342\t=\300:\267\274\230;\313<\315\266\031=\313\306I<\313\235\237\275\325\371\347=]\357&=\033\316;=/\353\367\274\005\265\271=\022>\004=c`\322\273\016\213\307<\203b\254\275\357#j8\266\347\2509\030(\241=r\262\331\275\224-^\275\007R\262=\200\303\030\276\2026e<Sz+\272\261\214U\275\325\213}<f\0076\275\014\367\264=\333?\271\274#X:\275\273\304\202\275\247r\251:\313\303\001\273S\227\350=Qz\347=rH\305=\003!-\273\\\2725\275<\261\300<\337\254Z=hMT\275\t\271\321\275*\225\333<\247\226\'=\365&\037\275z\303\244=\360hX=@s\265=\376\335\251\274\332\000\306\275\221*\216=\367|K\275`HK=6\365J=\251\007\021\274n\273\202=z\3114=\365\000\036<\346\224\242=\247\261H=\n\000(<\020F\327;//\027:\225\322\256\275\251vR<`[\225\275\t=\254\275\2403\010;\027\305\242\274\331dr\274\253\3743<\020US=\2652\351\274\314\372\037=\323?\225=\265H\246:\254 \274<\304\305\021\275\3378U=\361\r\r\276y\265\270\275\320t\026<5\021\303=\232\030\223=\307b\311=\264 \242\274\240K\364<\342p\002=\266\335\313\275\257\366\265=\221K\004=\3300\223\275\364~\323<B\360\222=\240}\222\274\007Wg\275\277\032\016\276\353\205\366;24\343\275\306\246\245\271\200\001\221\2753\225\003=-\252\312\274\307\3767\276E*|\274\346h\303\275,\013^=\221\243\312\274\006\274\314<D\2520\274\n$\331\275\033\360\364\275&\206W=\270=\026\275R\rj=Z\245;=O`\302=\307H\006\275_\332\315\274\242\224\254<\236\215\312=\343\300\374=\321\232#\275\017U\364\275dV6\276P\240\275\274\247Y2\275\265\207\221\274\366AR\275\275\233\240=\273{\260\275\375G\220\275P3{\275~\376\210\275,\266\020\276\035\n\202=F|\217\274\3444=>\030\2252=\311\362e\274T\t\016=e\231D=\376\177\002\275<J\203\273@j\342\274l\013\271\274\344\030\033\276\215\3050\275:\312\223=\226\033%\275\304`\205\275i\241\210\275\021\263E>\024\266\034\275K\220\247\275\375=\031\275\207\342\256\275)! =\230\240\341<I\320\010\276@n\216\275?v\010\273\217\364+<\266W\262=S\344t\275\207\327\230\275A\2735\273I;\212<\033@+\274\036M*\275\'J\250=\001N\355:\260\301\006=j0\233=\006dK\275\267\217\240\275\3052\202\273\351N\330\275d\223\n\275_\031\330\274\330EN\274\027\370\271\272\341(n=\270\253C\275\035\237\221<\232H\246\275Jo}\275s\246\253:9\333\277=\020\034\257\274\312\t\270<I\363\312\2754\343\267\275\245\203r\275s/\002\276\212\335\036=5/\211\275wO\311\274\r\307|\275E\311\262<g\271\337\274\334\356\002>z\356\010=\031b\214=\203\357+=B\237\327\275Y0\r=\300=\256\274;s\232\275;\205\207\274\350\305u=z\036\240=ha\212\272 \333\311\274=@(=\271\230C\273\372\371o<\212h\203\275\024\2456\275\271\202\271\275\200\256#\274\256\320\232\275\204\333\262\274T\337\223\275^K\224\273\241\217\200\274\004\340Q\275\325\313\207\275o\336d<Q_\253=L\034\333\275W\317\254<|\034\242<\245\315\227=\000\240\317<\247\240\264<\307\374\273\275`\010\213=vW\323=\252\177\250\275Q\221\252\274z\\\003\274?\314\377\274\350\023Z=\252\r6\276\210\345v\275\333\2771=\331\\\034\274\273\177\023<\374]\266\274\032\244y\275p\231\212\275o\353\327<\224\347\232=J\251\344\274-\343P=@\021\224=\360\343\221\275]\226\t>p\274^=\246\310\217\275!W\211=Qx\253\275\026;\300\2750\300\177\273\245\330\244\2739\r\217\274)F2>\364\262\367\275\314Q\032=\370\370\037\275\273\245\344\275\007\031\006>\033\035\256=\367\017\220\2744\213g\275\342\020\360\274\rA\320=p4O=\241h\201\275T^Z\274\251\271\t=B\r\373;Omm=6\322\237;\241\223\263\273^<7=b\000\256=\205\203\233<0\360\002=\322jC=\307V+<\324\t\020\276+\331u\272\346\200T=3C69\301\322\256\272\0310\377\275\301J\324=gn,>1\3450\275\005\256\027=\213\351\247=\304\0329\275y=\276\275\317W\255=YQ\'\274\272\252\210=\030xm\275^\336Q=\217\250\320\275P\206\334\274\021\177\001=\274\271\326:\261\204X=\271\r\261\275\006|{\275\325\256\021; \215\210=(\014\203:3\277h\275\"\275\203<h \032\275&\201\213\274\267\242\224\275\31470\273\215\345\272\275$\375\271\275t\321N\275\20085=\243w\217\275\314m\377<\030\342&=\203\336\206\275\252\"\345=\254\305\220;\203}\217=\3073\367=\364\3128<\307y\373\274\373\013[\275\007X\257<v6==\261|\365\274 \222\333\274 N\000>5\344\353\273#\255w<\351;\207=\217\035t=\3155\365\274\352\244\235=\227\342$\275!\335\343<\271\206\010={1\304=\251`\"=]\232\023\276\201{\372\275f\203>=\232R\301\275\301\355\017=\377\373~\274\275^\022\275\336(|\274^S\231\274 s\324=\315hp\274\035\261\014\275e\235Q\274\377\275\200\274\325@\200<#\267\242<l\202\020\276\251\240S=\325Sa\275+\220s=^<\253<\244U:>E\223\224=\231\215c=\177)1\275\355\202\314\275Zom=p\273(=)\221M=\225B\022\275\272$\312\274~\336\003>\'\224\372<\307b\263\275\364\255;\275\022\020\204=\020\267\332<\215\177\220=\347o\202\274O\245.\274\013\315\317<0\271D=q\016H=\2137\303\274q\243\007\274\031\342\306\275\353\323\022\274\306A\231\275K\266\222=\347\323\036>>\337\342;\351R\330<\237Vn<\324\3227\276\346[s<?B\246=\020\352\347\273\304\277.<\306\004F\275\010J\006<\346t\017<\223\245\306< \347j<{\2124\275|\251E>\371T\271;\301[y=N\231\250\275\203D\321\275?7\267<\354!\312\274k\'J\275Y\375\020\276S\357\246=\331\254\256=\036z\003=j\014\351<e\305\271\275\304C\265\275/\233\010<n\362L=\226\202\252<\207m\217=\034\274\255=r\254\350<\324.\031\275a\224\222\275\2560\302\274\366\314\000=\007\307\232=\372/\032\275\013\265|\275\031u\010=\275U\236\275\"\243\005\275\232\325\234\274\001\276\242<\351\224@=\013\311\253;Tgj\2756\352\204\275D\302\373\274\035x\031;\306c\010>1\251!\270\330D\244\275\246\324\206=\311\177\216\275\r\r\360\275$\n+\273\036\tR=\247\213:;\316\301~\275du\003>[\204Z\275\312u\002\274\372\201\\\275Vg\242;\253A\000\275$\240\\\274\277\211\013>\025\0311=\201\204\210<\3165.\275\213\204\004\275Oh\353:\361~b\274e4\023=J\342\311\273\003\227\305<\345\230\264<&I\"\275qRF=\177\032\315\275\257]\324\275\230?\207\275S\202\325\274\020\241\006\275\036b\263=!=\017\275\266\200s=e\036U=T+1=F\250}=a\'\242<G\236\r\275\237\207\265\275\357\314\r\275u\"\326\2758\0208\275\200\024:\275/\016\202<\346\204\372\273G\004\361=\336P/\272\234\030*\275\003\023\215\275\375P_=\270O\036\276\365J\243;\344W\007\274\305x\243= \002c=t\230\314\274\260}5<\330\227\330=$\351q\275\322\256\267\275\320\322\010\2759_\261\275PG\221\274\014\214Q\274\201\023\313\275\002\320\212\275T\250\207<\032\274\023\276\210\261\352<\224\330\025>\223\271\272=?j\214==q\201\274`+\r>v}\n>\275\220H\275\263\363\216\274et\301<`\231q=\"\305\203\275\235\275\235<\324\261*=\322\026\t\275\376<E>\210[<=Jp\364=\021\026#>\2718\254\275\266?/\275\035\330\314=\334\347\301<\362\347\322\275\017\201\223=\215\326\232=F>]\272\004\262\317\275\031\247\345\275\322\370o\275\310E\261<\334\253\314<j/\210=\324\304k=]t\342<ANt\275\n%\210\274b\360\333\2752]K=\377\303\243\275 \275\231=Y$\272=\261d\020>\3310\231\275um\324<\245\330\325\275\020\\\302=\314P@\274I\230P=\214,\274<\323\021;\274\247\335\232=\024C\366=\312\360\300=,\270$\275\2008\241\274\341X\013=-\315\237;\014ur=U\307\361\273\332\215}\275\030\330\263\274\230\355\232=\222\030u\274<uV=c\363A=-<\275=$`\020<\037\356;\274\365\332x<^\201L\275\223T\273<\\5\327<v}g=\320\035\010\275{\263\371;\345d\346<\246\276\307\275S\244I=\301\235\220\274\254\244\234\275\266\267L\275\020\027z\273P\223D=\341\265(=Y\321\301=A;\006\274~\201\307\274\207\374r\275\2270\021=yS\237=\267\301S>\003)_=\252\275f<E\241\307=\205|\223=\000c\254\275\001g\372<\310\177\245\274sg\307=\373\002M\274\031\240\211<6;\\=\266J\206\275f\204\377\275X\362\000;\320C\340=Ch4\275\236\004\204=M\230\\<\024\321\311\274\245\'L\275\300\350r=\222Q\021\276\264|n=O\341N\275h\230?=\032\2033\2749\330a=\245Q\224\274\001\3318\275\216\341\277=\213\332\343\274\221\326\200=\022\345\362\274\212e\346\274\321\207&<\346X&\275\262Vc\274vfY\274\264p/\275\246\225\032\275\010!\227=\327Rj\274k\210\254<4D\355=\363P\276<\361\212\025=;\336\347\274\'\311[=\030OA\275\027\273\337;\243\372\210=\'\274*=&\343/<\214\306\375<[U\246=s\257\245=\227)\214<*\303\215\275m\325d=k]u<y\007\350<l\251\177;8\326\301\274l|;=Y\024\004\2764\304\333:\332\277\202=G\357E\274%\014X\275\252\341\231\275n\332\371\275\030(U=\366Y\010\276x\336%\276\337\331\035\275\034\343\254\275\205t7=\353\002\261\275\204\262\002=\257\032\324\275\220~\r=\276\235\335=I\206\375=\372\271\232\275\215\223\357\275\'-\014=*`\323\275X\007\231<c\364\320\274u\026\317={\345\246\275\325z\213\274\256\360=\275\010\264\233<b=\022\275\361\203\366=,S\351\274\212\036\252\275\270\372\246\275\017\340\202=\006oG=\250G\252=h\324|\273\303\227v\275\240\211\254\275\200\261\230=\033\001\366<-\253\021=\356\347\265\275w5\360<\255\210\227\2738\275i\274N33\275\341\220\354=u\013\226=\271\320P<A\224\240=\214tZ=:\331{\275\252\227\264;Q\262\355\275\0325\322=\243c\314\2735\266\t>\360\213G<\322\025\002=AC1>\360j\266\270\243\366 =4f\254<\276\266c\275\242\207\267=\240\367\307\275\342\257p\274\206\253\223<\027\305\270\275\322\327V=M\254\220\275\006\211x\275\335K\334\273I\211\270\274\037\016,=\271\315*\276\344\345&<\313\3253\275rw >i\353\246=\246\217\302=d\246y=\206\303}\275\242\243\021=\274\227h\2742\374\272=V\025\322=\260L\021=V\037\313=\274\362\214\274\221\272\320=\211\277\275<\343i\256;D\375\256\275\t&\025\274CX|<\255e\230\272\304K\367\275\234\244R\275\236\320\234=\333\212\225<\"\250\025=5\274\202\275\210)-=|i\316\274\215\374\004<\304z\035>\243P\032\276\374\241\264\275\264\nd\275\346\340\326\272#c\342<\217\003\356\275\277\n\207=\246k\004>\360L\263=x\353\221=l5\324<\255Q\021\276\177P\3268\201`\354\274\352RD=\323G\030\275\224GT=\2719\375<\245T\"\275\335\027\204\275$\346\363<\031\224\240\274\n\014\363=\010x\223\274\023\")<on\035\276\201Y?\275\336\313\225\275\343gf=\276\301\036=d\326\253;\337\035\346=\222\335\263=hv\265\275<\036\305=\316,\221=68/\276\354\367\307<J/\310\275\373\336m\275i\323\245\274\257\006\362;\365\272\375\275Ec$\274\r\374\376:$O\332<\260\344\205\275\307\367\"\276tt\374\274\356\305\030\275\313Y\311\274\310\276b=b\250o\275\237\306\237\275\342\341b=\007\337.\276\324a\212\275M\215\202=M1\313\275\370Z\237=\354yG;\3371;=\3044\240=\254V\341\274\033\260b\275\244q\331\274\021\226\022\2751\302==X\272I=\254WC\275\345\266-\273U\233G\275\3502\"\274\365F~=\324\361(=1\311^<\262\374\272\275p^\010=\372\255\376=\261\312\210\274\325\340\274<\262\247M\274\031\032\"\276T\003\304\273G\335B=\\\367\001\275\364\3440\274T\267.\276b\242\022<\n\207\210=\337\270\206\275+%\010=\035*\306=\240\037\304\275O\022\257<\226i\316\274\276Gt\274\344(\304\275}\272\347=\035~\034=\316\366b\275Q\013\010\275~T$\2757\320$\275~\000\321\274%a\247\274Yg\200=\2035\300\274\016M\034\275\335\236\302\2743\333\024=\311r]\275l\232\317<Y\310\263\273<\335\302\272\303\232\364\274-3i\27537~\275\367\007\303\2748A^\2751k\203=\005\272\n\276\267Pg=\2654+\275S\366.\275p>\312\275>`\274;\253\351\214=\220\202/>\256\345\263\274R\341)=\307\t\322\274{G\270\275\322\332,>#\312,\275\001/\232=\034`\270<q\344\300=\236Y\023\275\334u\325=.U\204;\352\322\332\275\317\272}\273\257\016\007<\360\321\362\274\353\267`<\274\266\026\276}\266\203\274\343\274\337;\221\214\207\274\330c\037=*m\270=O~\t\275\237\030\236=\315@\227<&l\252\273\263\321\314=\346c#\274\366C\345\275\2146\020=\373)\252\275\304iB<\211\264\004\275Q\217\217<\341~8\2768\302\324\274\033\003\312\275\264\217;=\232#\224;\206\243\353\274\334\371\236\275\217\367\215\275\260\311\273\275\245X\351\274F\016\031\275\"@u9AC\226=\313\2311=z\341\370\275f5\262<\300\267V=w\r\323<L\302h\276\356\360\037\275\224\357\002\276\367E\202\275b\n\r\276\024;\337<:\255\225\274*\321\343=NfS<R\205\332<\334\334\352=vX\273\275/\352\332<\261E\277\275\255\242\260\274\303\212\227=\334%\304=\272\032\253\273\371\t\314\2740\305\376<\226\242\341<*F\324<\347\335\221=O\t\276<\035p\327\274\332\273O<X\347,\275\326\245\027=\257q\242\275\264\254\203\273\001\312i\275\300\"\271\275\371\304\303\275\200\227\201\276,#\004=Z\351\034\275C\334\243\274\320l\240\275\030\250!=\265P0\275h\252\014\275\235\025\004\276\312\002\377\274\302\212\005=8\r8=s\272\212\275\2611\205\275\270S\023\273\\\222\301\275F\335Q<2\311\r=\200:\026\275\256\030&>\033\215\215<H\037\312=\211\316Y\273\312(\341\275d\357M=\004}y\275B\022\255<\306\270\236<?\226\246\275(\000O\275<V\275\274\003M\371\275)O5\275([\273\274x\233\207\2749\324\332\2743}2=\353%]=\002\266p< Ky\274\252L+<\036\037\n<\021\270l\275\267\257\236\275\344\207\014\275\361\354\233;\000\375\206;\006$\026\276\0143\262<\351\000s=\323Y\261=\3746\236=\007\231\240<\217\237\362\275\254\277N=\321\020J\275\202\010\260=\351L\217<.4\201;4m\226<\301K[=\346\332n<w\206\352\275\034\272\350\273E\303)\274\206Y\251=b\356\247;\221\217X=\351v\202=X\033\256=\207\350\226=\366Om\275S\177\322\274\344\355\032>)\276\322=KHg\274,\307\353\275 p\007>m\255\235<1\372><\367\026J\274\nF+\275!CF\273\223\211\236\274\321\312\017\276\2153I>/\336\210\274\031\354\370=U\020\240=u\233E\275\256\3232\275\236\201\311<\266\261\360<}\276\246=\026\315\023=\205\273\2359#x\003>o:\221=\220\210\312;]\367H\274\360\201\316\272S\311\252\274+#\203<A\220\335<\3735\225=\372\303\025\275\255\315\255\275\003_\254<\3150\201\275\001\353-\2754\235\322\275\'\274\276=\204\303e\275X]\322\273\031>\215<\351\010\355\274\230\266{\275M8\325<\001\337\227\272x\354\245=\315Ej\273\311{F=u\352\216\275\033\323\211\273ET\214\275\345\033\032\273\177\030\n<\177\356\027=HC\270</K4<\005U\342<\324\036\334<z\\\013=~Hb\275\356\257\364\274`\2554\275\031o\365<\036\214\212<\004\315\316=2V\264\275\332\365\220\275\300w\014=)\214\301\275H\232\n>\010v\214\274\020\240\303\275r\273\013\274\370\037\356<\266}\031=\213X;=\247\363\\=\216K\206=\027\207y=Y\246\346\275\2607Z\274\363\345\354<\311-6=\016a:\274xD\">\200\361Y\275\023\327E<\375\340X>\245\222\260<\276a\306\271l\341.=\207dB<\260\272\233\275nn\320:N\257\346=\014\307\t>\222\223\'\274\367pk<\267_\271\275\230\206J=\254V\034>\273/F\275\330=<=\217#\262\275\241s\211\274L\257\233\275\021}\033\275[]:\274\233\252\270=\301\014\335=Y\366\n\276\233c\357=(\026U=\013\352\205=\300\357\216=\023 \233\275\340\310\225\275\330\317Q=\261\350N\275\214\210\244<\210\245\002>\362\226\316<\254\016.\275\251I\220< 4\212\275\266\004\026\273\326\3355>\337>\353\274\036\254\272\274Cy\330\275\024\376\325\274tc\265\275,\334\346<m\305\303\274:\201\000>\245\366\235;\263\007C\275\025?G\274~R\231=m\303\274\274\345\311U\275\221\'N;j!q=o\367\350\274\375\004\330\273;\n\225\274\243\205#>\022\351\030>\2576\202\274a\2017<\322&\213\275@{\006<\336%\261\275+){\275\241\231\214=\266\312@\274A\327\211;\r\3027\274\347%\241\275B\333\220=*\007\257=d\313\231<E\001q\274\303\327\275;\'}\'>\203Z~\274\240\222\270\275\372#S\275\017\265\037=\247\355F=k\216\350\274\020\361\370<\307]N=V\246:=\374\202\303=J\255\213=\245;\303<\013\344\300\275\201\365\026>\301\013x\275\322\355\005>D\001\316\274\001j\331\274\206g[<\323\223\021\274\221y\334;.\260\001\276\000\275J=\357\330\331\2706\037\326<\376\3546<\251\235\260\275{\252q\274\344\226\005<\313\226|\275p0\233= \276\267;J\223\320=4\010]=\204\233\276<\\!\256\274\374\362\303=\3010\274<\336\262\010\275b\252\323<\375\316\001<\301\304\371;\350\3642=c;\037\275n\320\013\275\314.\260=\264\000u=\307\217b\274\324m<=\'DF>B\2341=\352Yl=a\256\n=b\0364=H#\275<\213\247]:\230\221\276\275\023cf\274\311\215@\274k.\236<\251\031\025\274\237\001\240\273\276\304&\276\240\010==\223\377B\275\333k\320\275\370E\257\275\025\023\313\275^;<=V\375M<\330G\303=\376\017\314\275\337\353\274;\367\351r<r\003\267=\246\201\034=K\370\261\275\325\213\010\275{\333\217\275\313\266\026\274\376\265\014\274\223\254\217=[$ \275\376\354\201;\025g%\276\345\356y\274?\263\234<d\340M=e\204\026=\304\345\351<\210x\n\2752`\215\2738\315;\275\333-f\274\346B\r\276\326\223O\276\232\022\221<\237]\022=\307\235v\275L\024k=\337\023\374\275\004\337\200\275\377{ \276\264\201\210\274\213\373\022=\342\275\325=\235\t\200\274\263i\256<\006\275F\275\367i\351\275~\276\316\274$[\371\274\033\202\322<vv\227=\377\266\324\275\336jg\2753\222\311=\275\314\010\273\205:A\275P\323\235\275\276\025 \273\243^\376\275\356(\342=e\336\347=\316\t|\275c(\321\275\234k\005=\331e\243<\251a\332=*\277\304\274\325\275b\275\3507\036\275\252D\002>g\357\000\275z\031\271\275\377\262Z<\004M\370<\363\203\212\274\'8\245=\245%\252\275r\370_<\371Y\273=\325\303\302\274\362\303\360=\250t\243\274\335\001O=\224R\327\273\034\256\201\275Iv\037=\221\177\256<\313=\215=-z\277\274j\365\037\275\231\330\031\274\t0\227\275\227\242\253\275\020d\272=\245\017\206\273\'\022\236=$\256\344=R\022\250\275\340!\245=\273e9=\037f\332\274\243B%>\0273H\273\304\215N=\005{\206=\233\034\020=\216H\245:F\307%\273$\342Y<\226l\253\275\225\372q\275\010\016\327\275\342d\253\274X\336\222\275d\275(\275_\374y=|\222`\275\244\023\010\275m\004\013>\250\347\253\274\267\277A\2745\022\233;q\020\352<\320\025\230=\323`!>e\234\005\275\342\354\020=F\373\323\271\275\032\t\275^mY\2759s\220<Zz\361\275\200\264&=\333x\031\274`\210\211\274\362\377\245<e\374\312=\023\324C\275H\232;\275O*\311\275g\006\221=\356\260\303\275\300\314\346\275e\245y;\014\3014=\345\0163\276\311\\\244=\316}\226\275\371\207F=\233\340\210=\255\3735\275\316#A\276\341\034\005<\027c\254= \205\017=x\371\036\275\033\300\275\274{Hy\275\'\307\302=3\363~=\334\343\236=\003\337\267=X\260\023\273\320\215\305\275\347\365\000<\331\001S\274hcL=\360W\003\276\301 \277=*\014h=\026\330\233\275\024\236\206\275\251\205,\273\322\027p\275#6\245=\302*\310\274j\370e\275\0162F;~\242\331\275y\250&\275\267y\364\273\340\r\354;5\0004=\007\242&>\347j/\275\0260P=6\337\303=\322\342\343\275\003V\245=\215\030u\275\007\314\032=\016s\342=S\000%=+\365\006=\367\242\331<t>\366\274R\214\215:|\247\326</*D\275]\345\262=\007\3152\276\r\253\263=\021x\320=\241\261p\275\272\266\021=\013\024\223;\335{\246\275\312\212I=\316!]\275k\031\223\274\265\302\354\274b\177S\275\"sO=s5\317;\351(\004=1$\203=\345=\352=ON\377\275\346\233\013>\323\243O<\261\241\023\274Sk\317\274EU\314\274\276\237\332<\353s\275\274\034\334\236\274\340\314\377;\261E\221\274\032\252\236<\332\177c=\236\027h=\345\231\256\274\324\357\270;\354\035\232\275,Z\235=LH:\275b\230\023<\205\267\362\2734\315\027\275\030\224\224\274=`\356\273\377\303==\257\303]=x\235\037\275\257\326\024\275\364\005c<\302\251\302\275\0377\025>\236\rQ\275\317S0=P\014\252:\254\360\272\2756[O=R\350A\274\265\312\030>\235\244\202=0\3350=\310\036\302\275$\034\257\273`\364\t\275\203\347m=\364\027m<\331\232\232=\260]\027\273]\265\026\274g\220\304<\261\317\207\275\221\244\235<\202@\267\275\014\0359=\240\307\343\275.\353\322<\024}\010\275\253\001\032\275\024\272\226=\036\345[=\244\037\241=\256j\315\275\262\273?=\227Gi=\347\231\251=\376-\240=Y.Y\276\207\205\033<\024\235<=7\210\002\275UJ\217\274\233# \274\267\0103\275\034L\203\275\352g\026<k\222J=O\250\031>\325\r\243\275\322\034k=\216g\302<\355\306\022=0bV=j\270n\274\025\324\346<\331S\267\275\2238\345\275\037\325\250=\253\231\335<\207\264\211\275\020\366I\275~\245\006\275Q\314m=\023\025\253<\227\217\343<\3567\253\2750\204\253=\0265\021\275\177\350\210\275\022\245\226\274\360\331N\275\225\336!\275\003\357\246<\241\322\314\275\034\373\031\276\352\330\205=\222\221v<\202Tc=l\267\200=\241\250\000<=X\232=<\317\014=\267\301A\275\344\001\207\274\324\212m=\026\305\342\275\231\216\361\275\332.\237<GP\233\275|\364\321\274`\324\233<y;\321\274\257\263\344\275@\267\243\275\253\267Q=\301\204\361=[R\207\275i\317#\276<i\311=d\251f=X\262\257\2755\221\236\275sD6>\003\220\225=i\226\310=\'l\362\275)hr\275/\230?\275\361F\216\275\2066\371=\222\023\267\275\245\035\301\274\275\372\256<Kn\310\273D%\244\274\326\210\356\275\260B\323\274\317.\000=\010\025$;H\002U\275.\"\273\275+\030%\276V\357\005\276\310\370\214<\311\325\212=\353\3540\275\014\232i\274\315\013\271\274\356\237\203\275\224\034\200=\341IZ\275\003\366\000=$v(=\202\0062\274D0*\275\277\243Z<\230\246\260\274;j\203\273\240\325\352\275iZ\226\275\330\327\217\275.p5<\007\204\222=_\365e\275r\360\237=4\214\n=e\277\257\275\371:\004>\366\203\266;\\%p=\177\324\350\274\231< =n%\203=\254*t\275\027\317\245=c\205\273\2754\344y=\210\374\312\274)\222\033\274\315\r\246<6+\237\275\2054C\275 9g<v\306\021\276\023\027m\275\314\310\213\275\240\013\234<\347\334\235\275\313\367\360=*+\243\275\216S\304=f\014\035\275\025\223\265=d*s\275Z\244\214=\246\217\210<\375)\354<V7\266\275\331\205t\275\227\265\027\276\037*G>3\302\221=\025S\036>\316\205v\273\311\314\264\2756\263\031>\305vM:\246\214\252\273\345\344\321<>\214a\274\344\367m=\203t\341=\n\365n\274J\222\231\2754\303\017>>\314\230\274\016H\027<\205\261|<\nd\311<8Aq\273T\227%\275\037\024\273=\263\032\317\275\341\020J\274\312p\311=.\305\372\274\354\267\014\276\250\372\315\272K\030\245=D5\001\276\037\347\331=\320(<\275\356\353\350\274\212dT<\277mm<h\033\003\275\3762\326=\354;:\275\221I\361=b\037\216=\233\276c<\345\236\275\274zx\201\275\233s\212\275\304\356\034\275\360+h=3\023\252=\370\321\247;\t\000L=\222\334\333\274\36302=\366=*;\016o\207\275\004\3272=lA\312=|\320\036<\0328\021=pp)=\266\255j=\225\367\243\274\337\203`=\362\013\216\275\363\304\266;\030.\t\275Q\021#\272D\002_<\207u\245<\010HZ\275\232k\354<\332\300\233=\270\364\374==\036\026=\3261\020\275\3217\261\275\232\373\255<\321\237\376<\'\222\207\275\224\314\221\274\200\n\307=\277\260\250<\336`\365\275\302\210\006\273\310\277\025=m\261P=\270\0260\274\254\262K\274{>\341\275\335b\241=\334\273\251=\265\364\031\275b\205\274=V\233o\275g\226\352\2734\276\275\273]n\204=\355\367[\275\374\243\352<\001\3705=\355\3343\274<O\372\274\300\360:\275\225A\032=\276\342\272\275\367Rj\274\244\332\022\275q\226)=!r\232<\224eM\274q]\316=\2604\265\2758\313<=\345\275c=\354\333\376\273\263\213?\275\326\016\211=\002\0107>\177\342\017\275}\246\206=\226#\327\272\240\265\232\275\336!\315\275\304u\271=\2732\004\274\237\245\243;`\256;\273\277\345\021=<|\014\275w\351\246\273t\310[=\227\241G=\232lo=yV)\275oU\347=\206\037,\276y\361\026<W\235[=\323\262s\275\264\364\272\275\265(?=oc\246\275 \013h\275\277X\224:\340\237\026>\004)\211;y\310\321<\342\343\202\274\014\034n<\322\321\205\275^(\374\274\002X\265<W\266<=>k\272\274m\374\255\275\204]\265\274y\210\271\274\213\307z\275\265\236E\275t5\366=\234\026\346;\263.-\271\2426\307=\017\256\215=\005\004\213\275\333\301\273\275\272\302\254<\354\371\007<n\236H=\375\314w=\014\230\204=\222xn\275\016\331?=\"\375\256\273m\343\222<\2519\254<\325\250\206=\322K\267\275q\277\270\275\302\026\230<\204\341\262\275\325\344M\275\n\274\035\275\327\247\213\2757\226\034=(\346}\275VQ\177\273(^e\274le\303=\277\027r\2747U0\275#\010\356\271\367v\354<\321\246\304\275\244YF\274\335\022\221=\234(\006\275S6\022\274.\n0\275\314\220a\275\200\217\214\275\2447\377\274\243\001\376\273u2\263\274M\240\214<T\213\021=\021b\345\275\347\354\276\275P\225\231;(&\207=\325|\002=\217V/=\r\336@\275K\",\273L-\374\274\314n\212\275\266`\252\275\320!V\275\374~s=2\334\360=\365D\215=X\332\"\273\325=\365<\003K#>I\257`\275\377\336\202\275\350\004\330<\321\017\303\275\014\301\265=\331\302\345:\367\214\201\274\247\253\217=$\237\r\275\t\325!\274\tK)=~H\023\275 \240U\275\270\212\204=z\233\273=tz\227=\373\004\270=\360\212\243\274\205\200d>\311\"\300\275`}M\274\360\326\036\275\324\363x;Z\361g=\341!H=\025N\241\275\232\030{\274\210?\305\275\005\214L\275\326\320\253<\237\270\323\273\335x\202=t\222\322\275\2542\330\275&\\d<\233\345\225\275\370\035\215\275\331\304\217\275\326lg\275\372\335\256=\020KK\274\250\323\352\274_C\243<\226>\241=O\345|;q\036\353<F\250\304\275\001d\366=\367\313\021\276O\n>\276\353*\377<\253\346\\\275\331\353k\274\235\205\303\273\236\316\032\275\\\207M=\274B\205\275\227^G\275\2105\003\276\020\027*\275\3042\316\275\'D\335=\302\345\036\276\256s\233=\3445\016<\325\315\311<\022W;=\221N\205\273\264\231\003\274\333D\375\274J\330p\275\315\202\262=G(Y\276\364M\201;\275\316\014<\317\355\306\2757\311\332\275D\007c\274\234\177.=:\302\242=\331\310\324:\275\'$\274Y$\275\275\217\371\201\274\246\002\200=\321\220\t\275\251-\033<%\210\221<\336\243}\274\342^\300\275\246\364_\2752[\274<N\346\303\275\035\262\213=\027\021g=\344\231\344=U6Q=\362\224,\275\353\211\342\275FF\255\273\215\214x=\032\277\313=X\375\251\274\261{\031\273\303\376\310\275V\363e>\244\226\371\272!\265E<Y\263\224=\0053)\275\341\014\325\275\316G\310=\007m\270=\266=e\275\207\"_\274|\"\323\275_X\017\275\205\263\014>\354z^=*=v=\366\355\374\274,\022\000=\337\373\306<!\273\362<\276\273G=\275\026\201;$\200\210\275\246K\t<]\321\221<+\247\240<\030\273\266\275\302\310\343\2754\272\\\275\004(G=|<r\275\302\361\346=r\021\016=\257\007i=] \003\276\0132c=\2457\223\275F\030\253=\344|/\275W?\265\275\\\333\003\275\221\016\357=2F\352\274i\363\323\275/\006\004\275i7\263;\030\ns<\330\006\025>\254Kq<\216\254\021=\331GC=\222\002R=\372\361\206\275)\252t\275\206\027g=\213/\006>0\022\001=\323\2306\275\177\207\216<\31766<\201\327\314\274\034\377\013\276\217\232\310\274^\272\026>\213\267:\274S\007\021=\370\345\214\275\335\346[\275\240|O\275\305l\251=\210Rz=&\233\376\274Q\272\201<\244L\016>\323_\221=\361\270\244=e<\375\273\331v\342=\216\321\361=\213\302\256<\235\0329;\001\313\367<\0177\343<\224\230\315<\001\033\212=\354\001\301\275TJ\257\275Qym\275P\260x\275\320\335\245\273\210\246[\275\262\264\274\273\"\327J=!\325f\275\276\300\023=\217Ms\275m\325\205\275g\250\016\274(8\333;<\307\204=\341:\002>uj\037>$LD<Y\301\261<\315u\244=[\014\'\276\324c\000\275;\214\374\274\342d\244\275\216\2565\274\251AB\275\321\333\335\275G\275\234\275\336S\346\275\263\351I<Y\315\005=\324@W\275:Zb\275\215\276\324=G\205\217=\326\201A\275,\024\214=\357)\233\2748bv\274\027\005\242=\022\372\021\275\226\205@=\215\274\336;c\206!\275\320\005\023>\216\374^\275\372U-\275\354h\227=\'\222\227\275\272\316\037<tx\210=h\021\207\275h\017\235\274\373\214\365\275\256\213I\273\032\316~\274\302\022\324\2758Z\210\274\033 Q; \\q=\237@\244<\307\007\020\274/\351\325\275&\250l\275E\265D\275\345\245\r=\245\234\307\275)\017\000\275\246\316\257=\211w\340\275\314\216m<\030Z\274\274\373\017,